{
  "version": "1.0",
  "truncation": null,
  "padding": null,
  "added_tokens": [
    {
      "id": 0,
      "content": "[PAD]",
      "single_word": false,
      "lstrip": false,
      "rstrip": false,
      "normalized": false,
      "special": true
    },
    {
      "id": 1,
      "content": "[UNK]",
      "single_word": false,
      "lstrip": false,
      "rstrip": false,
      "normalized": false,
      "special": true
    },
    {
      "id": 2,
      "content": "[CLS]",
      "single_word": false,
      "lstrip": false,
      "rstrip": false,
      "normalized": false,
      "special": true
    },
    {
      "id": 3,
      "content": "[SEP]",
      "single_word": false,
      "lstrip": false,
      "rstrip": false,
      "normalized": false,
      "special": true
    },
    {
      "id": 4,
      "content": "[MASK]",
      "single_word": false,
      "lstrip": false,
      "rstrip": false,
      "normalized": false,
      "special": true
    }
  ],
  "normalizer": {
    "type": "BertNormalizer",
    "clean_text": true,
    "handle_chinese_chars": true,
    "strip_accents": false,
    "lowercase": false
  },
  "pre_tokenizer": {
    "type": "BertPreTokenizer"
  },
  "post_processor": {
    "type": "TemplateProcessing",
    "single": [
      {
        "SpecialToken": {
          "id": "[CLS]",
          "type_id": 0
        }
      },
      {
        "Sequence": {
          "id": "A",
          "type_id": 0
        }
      },
      {
        "SpecialToken": {
          "id": "[SEP]",
          "type_id": 0
        }
      }
    ],
    "pair": [
      {
        "SpecialToken": {
          "id": "[CLS]",
          "type_id": 0
        }
      },
      {
        "Sequence": {
          "id": "A",
          "type_id": 0
        }
      },
      {
        "SpecialToken": {
          "id": "[SEP]",
          "type_id": 0
        }
      },
      {
        "Sequence": {
          "id": "B",
          "type_id": 1
        }
      },
      {
        "SpecialToken": {
          "id": "[SEP]",
          "type_id": 1
        }
      }
    ],
    "special_tokens": {
      "[CLS]": {
        "id": "[CLS]",
        "ids": [
          2
        ],
        "tokens": [
          "[CLS]"
        ]
      },
      "[SEP]": {
        "id": "[SEP]",
        "ids": [
          3
        ],
        "tokens": [
          "[SEP]"
        ]
      }
    }
  },
  "decoder": {
    "type": "WordPiece",
    "prefix": "##",
    "cleanup": true
  },
  "model": {
    "type": "WordPiece",
    "unk_token": "[UNK]",
    "continuing_subword_prefix": "##",
    "max_input_chars_per_word": 100,
    "vocab": {
      "[PAD]": 0,
      "[UNK]": 1,
      "[CLS]": 2,
      "[SEP]": 3,
      "[MASK]": 4,
      "##en": 5,
      "##er": 6,
      ".": 7,
      "s": 8,
      "##ar": 9,
      "##an": 10,
      "##et": 11,
      "##in": 12,
      "f": 13,
      "m": 14,
      "d": 15,
      "##ll": 16,
      "o": 17,
      "##at": 18,
      ",": 19,
      "##st": 20,
      "h": 21,
      "##ör": 22,
      "t": 23,
      "##är": 24,
      "v": 25,
      "k": 26,
      "##om": 27,
      "##ch": 28,
      "b": 29,
      "p": 30,
      "i": 31,
      "##de": 32,
      "##ig": 33,
      "##or": 34,
      "##on": 35,
      "och": 36,
      "##ed": 37,
      "##ing": 38,
      "a": 39,
      "##sk": 40,
      "##att": 41,
      "##na": 42,
      "för": 43,
      "##ra": 44,
      "l": 45,
      "S": 46,
      "##ag": 47,
      "att": 48,
      "##tt": 49,
      "g": 50,
      "##el": 51,
      "-": 52,
      "n": 53,
      "är": 54,
      "##ck": 55,
      "u": 56,
      "##ill": 57,
      "##än": 58,
      "en": 59,
      "D": 60,
      "1": 61,
      "in": 62,
      "##re": 63,
      "##al": 64,
      "av": 65,
      "med": 66,
      "som": 67,
      "på": 68,
      "##kt": 69,
      "##ån": 70,
      "##ri": 71,
      "##ss": 72,
      "##år": 73,
      "##ning": 74,
      "##te": 75,
      "till": 76,
      "##am": 77,
      "##pp": 78,
      "st": 79,
      "##un": 80,
      "##and": 81,
      "det": 82,
      "M": 83,
      "##il": 84,
      "##ol": 85,
      "##id": 86,
      "sk": 87,
      "##lig": 88,
      "##ade": 89,
      "##der": 90,
      "##it": 91,
      "e": 92,
      "2": 93,
      "##ro": 94,
      "##ter": 95,
      "var": 96,
      "den": 97,
      "\"": 98,
      "H": 99,
      "om": 100,
      "A": 101,
      "de": 102,
      "##ad": 103,
      "B": 104,
      "##ver": 105,
      "T": 106,
      "r": 107,
      "har": 108,
      "##as": 109,
      "fr": 110,
      "##ett": 111,
      "E": 112,
      "j": 113,
      "##ik": 114,
      "##are": 115,
      "##is": 116,
      "F": 117,
      "ut": 118,
      "##ska": 119,
      "K": 120,
      "V": 121,
      "##ur": 122,
      "##ion": 123,
      "L": 124,
      "##em": 125,
      ":": 126,
      "inte": 127,
      "##äl": 128,
      "##ot": 129,
      "##ande": 130,
      "N": 131,
      "##äg": 132,
      "P": 133,
      "ö": 134,
      "I": 135,
      "##li": 136,
      "ett": 137,
      "##ätt": 138,
      "##00": 139,
      "##es": 140,
      "##åg": 141,
      "an": 142,
      "R": 143,
      "J": 144,
      "##ut": 145,
      "från": 146,
      "##het": 147,
      "##ens": 148,
      "##för": 149,
      "G": 150,
      "C": 151,
      "##ast": 152,
      "##äll": 153,
      "##ent": 154,
      "##iv": 155,
      "han": 156,
      "##all": 157,
      "re": 158,
      "3": 159,
      "Det": 160,
      "upp": 161,
      "kom": 162,
      "##ång": 163,
      "##us": 164,
      "##sta": 165,
      "år": 166,
      "O": 167,
      "##da": 168,
      "##ort": 169,
      "##ven": 170,
      ")": 171,
      "all": 172,
      "##ell": 173,
      "##ak": 174,
      "##den": 175,
      "un": 176,
      "(": 177,
      "kan": 178,
      "##itt": 179,
      "##äm": 180,
      "så": 181,
      "##ram": 182,
      "##erna": 183,
      "##isk": 184,
      "##arna": 185,
      "vi": 186,
      "##art": 187,
      "be": 188,
      "##yck": 189,
      "19": 190,
      "##mer": 191,
      "##fter": 192,
      "sam": 193,
      "##ans": 194,
      "sig": 195,
      "sp": 196,
      "##ger": 197,
      "man": 198,
      "St": 199,
      "5": 200,
      "##ru": 201,
      "##ist": 202,
      "över": 203,
      "4": 204,
      "##var": 205,
      "##ller": 206,
      "00": 207,
      "##inn": 208,
      "##del": 209,
      "##bet": 210,
      "##le": 211,
      "##ft": 212,
      "##ud": 213,
      "##og": 214,
      "##la": 215,
      "men": 216,
      "jag": 217,
      "må": 218,
      "Den": 219,
      "##sp": 220,
      "##rä": 221,
      "##ock": 222,
      "##ation": 223,
      "##ligt": 224,
      "##ma": 225,
      "##ats": 226,
      "##ber": 227,
      "å": 228,
      "##ul": 229,
      "när": 230,
      "##ull": 231,
      "##sl": 232,
      "##ff": 233,
      "##yg": 234,
      "U": 235,
      "pro": 236,
      "##ta": 237,
      "##äst": 238,
      "##äng": 239,
      "##av": 240,
      "##und": 241,
      "##land": 242,
      "sin": 243,
      "under": 244,
      "någ": 245,
      "##igt": 246,
      "##ök": 247,
      "bli": 248,
      "##arbet": 249,
      "##um": 250,
      "##ningen": 251,
      "vid": 252,
      "##eter": 253,
      "kon": 254,
      "##ord": 255,
      "där": 256,
      "##els": 257,
      "sj": 258,
      "##änd": 259,
      "##dag": 260,
      "##ok": 261,
      "bar": 262,
      "mot": 263,
      "eller": 264,
      "0": 265,
      "##ick": 266,
      "20": 267,
      "##iska": 268,
      "##os": 269,
      "##ek": 270,
      "##per": 271,
      "##sson": 272,
      "6": 273,
      "sl": 274,
      "efter": 275,
      "##så": 276,
      "##enom": 277,
      "##yr": 278,
      "kl": 279,
      "##ön": 280,
      "ny": 281,
      "##od": 282,
      "##ingen": 283,
      "/": 284,
      "En": 285,
      "##aste": 286,
      "##ark": 287,
      "##ers": 288,
      "##im": 289,
      "tid": 290,
      "##est": 291,
      "del": 292,
      "kv": 293,
      "c": 294,
      "hon": 295,
      "7": 296,
      "kr": 297,
      "##ilj": 298,
      "Men": 299,
      "##gen": 300,
      "tv": 301,
      "?": 302,
      "##ef": 303,
      "##bb": 304,
      "##edan": 305,
      "hel": 306,
      "##änn": 307,
      "##ka": 308,
      "min": 309,
      "hö": 310,
      "##eg": 311,
      "##liga": 312,
      "fl": 313,
      "##ust": 314,
      "##rö": 315,
      "##sm": 316,
      "##ant": 317,
      "##sam": 318,
      "8": 319,
      "##ne": 320,
      "fram": 321,
      "##aren": 322,
      "säg": 323,
      "##rå": 324,
      "##opp": 325,
      "ska": 326,
      "då": 327,
      "##ste": 328,
      "##äk": 329,
      "##eri": 330,
      "ha": 331,
      "W": 332,
      "9": 333,
      "##yn": 334,
      "De": 335,
      "##org": 336,
      "ock": 337,
      "##olm": 338,
      "##rik": 339,
      "##kten": 340,
      "An": 341,
      "dag": 342,
      "##je": 343,
      "##ov": 344,
      "kun": 345,
      "nu": 346,
      "också": 347,
      "or": 348,
      "arbet": 349,
      "##ost": 350,
      "få": 351,
      "pl": 352,
      "##ets": 353,
      "##ann": 354,
      "##öd": 355,
      "du": 356,
      "##iga": 357,
      "vara": 358,
      "För": 359,
      "In": 360,
      "Jag": 361,
      "##eck": 362,
      "##andra": 363,
      "##tid": 364,
      "hade": 365,
      "Vi": 366,
      "##era": 367,
      "tr": 368,
      "stor": 369,
      "##erb": 370,
      "Han": 371,
      "##åll": 372,
      "10": 373,
      "##ycket": 374,
      "##holm": 375,
      "##sn": 376,
      "se": 377,
      "##ningar": 378,
      "##ling": 379,
      "##ld": 380,
      "##atur": 381,
      "här": 382,
      "##ott": 383,
      "##va": 384,
      "##ulle": 385,
      "genom": 386,
      "##rat": 387,
      "##uv": 388,
      "##yd": 389,
      "än": 390,
      "säger": 391,
      "##inns": 392,
      "får": 393,
      "##ligen": 394,
      "gör": 395,
      "förs": 396,
      "kommer": 397,
      "vill": 398,
      "##man": 399,
      "ä": 400,
      "##kl": 401,
      "ex": 402,
      "bör": 403,
      "##ika": 404,
      "##ci": 405,
      "##ser": 406,
      "##ress": 407,
      "mycket": 408,
      "skulle": 409,
      "land": 410,
      "##ack": 411,
      "vär": 412,
      "andra": 413,
      "ber": 414,
      "##akt": 415,
      "##erk": 416,
      "15": 417,
      "##edel": 418,
      "30": 419,
      "##ari": 420,
      "!": 421,
      "##örd": 422,
      "finns": 423,
      "##orm": 424,
      "##öj": 425,
      "##bl": 426,
      "##uvud": 427,
      "##ug": 428,
      "##tal": 429,
      "väl": 430,
      "##olk": 431,
      "##ygg": 432,
      "två": 433,
      "##ir": 434,
      "##vis": 435,
      "##sen": 436,
      "##ster": 437,
      "##unt": 438,
      "##ades": 439,
      "alla": 440,
      "##ockholm": 441,
      "spel": 442,
      "allt": 443,
      "blir": 444,
      "##sb": 445,
      "##oll": 446,
      "bet": 447,
      "sen": 448,
      "##ild": 449,
      "##ass": 450,
      "ann": 451,
      "##berg": 452,
      "##ic": 453,
      "##ts": 454,
      "sv": 455,
      "Stockholm": 456,
      "##nad": 457,
      "hög": 458,
      "##ställ": 459,
      "##op": 460,
      "reg": 461,
      "##lev": 462,
      "°": 463,
      "##des": 464,
      "komm": 465,
      "18": 466,
      "huvud": 467,
      "bara": 468,
      "##ytt": 469,
      "själ": 470,
      "##tem": 471,
      "Ä": 472,
      "##red": 473,
      "##verk": 474,
      "##ånga": 475,
      "##ederb": 476,
      "tra": 477,
      "sven": 478,
      "lig": 479,
      "utan": 480,
      "verk": 481,
      "##verig": 482,
      "gr": 483,
      "##ekt": 484,
      "##ris": 485,
      "##erson": 486,
      "200": 487,
      "##naden": 488,
      "##ala": 489,
      "##ederbörd": 490,
      "12": 491,
      "##pl": 492,
      "##ring": 493,
      "Å": 494,
      "[": 495,
      "]": 496,
      "Sverig": 497,
      "201": 498,
      "ju": 499,
      "hem": 500,
      "##iskt": 501,
      "##ighet": 502,
      "ing": 503,
      "beh": 504,
      "sedan": 505,
      "##nar": 506,
      "##öp": 507,
      "##skap": 508,
      "mer": 509,
      "##åt": 510,
      "##ien": 511,
      "skall": 512,
      "ra": 513,
      "vis": 514,
      "##mar": 515,
      "##nings": 516,
      "ri": 517,
      "Sk": 518,
      "##öl": 519,
      "barn": 520,
      "##kon": 521,
      "bra": 522,
      "går": 523,
      "även": 524,
      "##ab": 525,
      "##ju": 526,
      "##gi": 527,
      "##ansk": 528,
      "sm": 529,
      "##riv": 530,
      "pol": 531,
      "##ellan": 532,
      "sitt": 533,
      "##stad": 534,
      "person": 535,
      "ligger": 536,
      "int": 537,
      "##ank": 538,
      "tal": 539,
      "led": 540,
      "hand": 541,
      "bl": 542,
      "##ägg": 543,
      "##alt": 544,
      "##ssa": 545,
      "##nas": 546,
      "##kom": 547,
      "blev": 548,
      "någon": 549,
      "vil": 550,
      "Och": 551,
      "##håll": 552,
      "##sa": 553,
      "##vär": 554,
      "##ier": 555,
      "gång": 556,
      "ta": 557,
      "##ård": 558,
      "dem": 559,
      "##aget": 560,
      "fick": 561,
      "##det": 562,
      "##oh": 563,
      "mat": 564,
      "##ind": 565,
      "##ende": 566,
      "##ym": 567,
      "##ja": 568,
      "li": 569,
      "bes": 570,
      "ol": 571,
      "tre": 572,
      "##ult": 573,
      "åt": 574,
      "##io": 575,
      "##itet": 576,
      "fin": 577,
      "första": 578,
      "gj": 579,
      "stör": 580,
      "##röm": 581,
      "##äck": 582,
      "##ap": 583,
      "##gr": 584,
      "##heten": 585,
      "##aturen": 586,
      "samt": 587,
      "##eb": 588,
      "något": 589,
      "##jäl": 590,
      "kall": 591,
      "själv": 592,
      "När": 593,
      "mellan": 594,
      "17": 595,
      "##iss": 596,
      "##snitt": 597,
      "##arl": 598,
      "Ö": 599,
      "##ia": 600,
      "16": 601,
      "11": 602,
      "vad": 603,
      "sina": 604,
      "##sätt": 605,
      "##anska": 606,
      "milj": 607,
      "##orna": 608,
      "Sverige": 609,
      "måste": 610,
      "##som": 611,
      "hur": 612,
      "##rar": 613,
      "##ikt": 614,
      "ställ": 615,
      "##ang": 616,
      "##rag": 617,
      "tor": 618,
      "rätt": 619,
      "##ål": 620,
      "många": 621,
      "##son": 622,
      "13": 623,
      "slut": 624,
      "Fr": 625,
      "000": 626,
      "##jän": 627,
      "Sven": 628,
      "##ering": 629,
      "runt": 630,
      "Du": 631,
      "##erade": 632,
      "km": 633,
      "##min": 634,
      "liv": 635,
      "Ch": 636,
      "##ern": 637,
      "##fr": 638,
      "bil": 639,
      "##peraturen": 640,
      "el": 641,
      "##enn": 642,
      "##ung": 643,
      "månaden": 644,
      "14": 645,
      "##ys": 646,
      "mm": 647,
      "##ars": 648,
      "##cent": 649,
      "fort": 650,
      "##heter": 651,
      "ro": 652,
      "inom": 653,
      "detta": 654,
      "först": 655,
      "ans": 656,
      "##edeltem": 657,
      "börj": 658,
      "##edeltemperaturen": 659,
      "varit": 660,
      "##änt": 661,
      "lag": 662,
      "vä": 663,
      "nya": 664,
      "fråg": 665,
      "##gång": 666,
      "##sten": 667,
      "##lar": 668,
      "Th": 669,
      "läng": 670,
      "vår": 671,
      "##fatt": 672,
      "##men": 673,
      "per": 674,
      "##else": 675,
      "pre": 676,
      "##se": 677,
      "##pa": 678,
      "Ar": 679,
      "mig": 680,
      "##led": 681,
      "21": 682,
      "##rig": 683,
      "##ce": 684,
      "nederbörd": 685,
      "hela": 686,
      "##orde": 687,
      "##ken": 688,
      "##äv": 689,
      "gå": 690,
      "##sh": 691,
      "sätt": 692,
      "50": 693,
      "bå": 694,
      "##eras": 695,
      "ord": 696,
      "br": 697,
      "##ara": 698,
      "hans": 699,
      "##dagen": 700,
      "##uk": 701,
      "22": 702,
      "##atten": 703,
      "några": 704,
      "Un": 705,
      "##igare": 706,
      "##ire": 707,
      "gl": 708,
      "ch": 709,
      "##ob": 710,
      "##ie": 711,
      "##ölj": 712,
      "##änder": 713,
      "##ägen": 714,
      "##äd": 715,
      "##rum": 716,
      "stora": 717,
      "##ämn": 718,
      "##iken": 719,
      "ung": 720,
      "er": 721,
      "##ionen": 722,
      "inv": 723,
      "ser": 724,
      "##slag": 725,
      "##rupp": 726,
      "##dre": 727,
      "mål": 728,
      "fri": 729,
      "På": 730,
      "##gram": 731,
      "##jär": 732,
      "##yst": 733,
      "'": 734,
      "meter": 735,
      "Om": 736,
      "göra": 737,
      "##lag": 738,
      "##merik": 739,
      "##ella": 740,
      "inne": 741,
      "##ukt": 742,
      "vet": 743,
      "kron": 744,
      "landet": 745,
      "##sv": 746,
      "lång": 747,
      "##rott": 748,
      "199": 749,
      "##öm": 750,
      "##giv": 751,
      "##äns": 752,
      "Del": 753,
      "25": 754,
      "##erie": 755,
      "##ket": 756,
      "gäll": 757,
      "bland": 758,
      "trakten": 759,
      "oss": 760,
      "ur": 761,
      "##ten": 762,
      "##eng": 763,
      "##ina": 764,
      "rå": 765,
      "fall": 766,
      "##mat": 767,
      "Re": 768,
      "##veck": 769,
      "##ästa": 770,
      "##dom": 771,
      "Joh": 772,
      "åter": 773,
      "##rätt": 774,
      "##if": 775,
      ";": 776,
      "##sf": 777,
      "##sak": 778,
      "tyck": 779,
      "svenska": 780,
      "##ös": 781,
      "ma": 782,
      "Ny": 783,
      "##maste": 784,
      "##ske": 785,
      "sn": 786,
      "##yra": 787,
      "honom": 788,
      "fil": 789,
      "##ard": 790,
      "##hus": 791,
      "##irekt": 792,
      "##bild": 793,
      "##ometer": 794,
      "Sp": 795,
      "möj": 796,
      "le": 797,
      "best": 798,
      "##orr": 799,
      "##ilometer": 800,
      "##rist": 801,
      "helt": 802,
      "kronor": 803,
      "##änk": 804,
      "##én": 805,
      "##ningarna": 806,
      "Hon": 807,
      "##tern": 808,
      "##ex": 809,
      "akt": 810,
      "tel": 811,
      "ingen": 812,
      "förb": 813,
      "männ": 814,
      "kont": 815,
      "All": 816,
      "ar": 817,
      "sak": 818,
      "##nade": 819,
      "Där": 820,
      "föret": 821,
      "##borg": 822,
      "folk": 823,
      "vin": 824,
      "denna": 825,
      "##alm": 826,
      "##ER": 827,
      "##sför": 828,
      "olika": 829,
      "tro": 830,
      "behö": 831,
      "##upp": 832,
      "Man": 833,
      "23": 834,
      "##oci": 835,
      "eg": 836,
      "##amilj": 837,
      "##hand": 838,
      "Även": 839,
      "##dan": 840,
      "hav": 841,
      "delen": 842,
      "kommun": 843,
      "##rakt": 844,
      "annat": 845,
      "##ruk": 846,
      "trä": 847,
      "Med": 848,
      "##rin": 849,
      "Nu": 850,
      "##usik": 851,
      "##omm": 852,
      "res": 853,
      "Ber": 854,
      "##ry": 855,
      "40": 856,
      "kra": 857,
      "##ors": 858,
      "ty": 859,
      "##ström": 860,
      "##ät": 861,
      "##alen": 862,
      "kunna": 863,
      "Ett": 864,
      "##erar": 865,
      "veck": 866,
      "##gör": 867,
      "##unn": 868,
      "##erad": 869,
      "konst": 870,
      "samma": 871,
      "väg": 872,
      "fast": 873,
      "##rit": 874,
      "rikt": 875,
      "##utom": 876,
      "##äker": 877,
      "År": 878,
      "##åra": 879,
      "sök": 880,
      "##elsen": 881,
      "gam": 882,
      "håll": 883,
      "hjäl": 884,
      "45": 885,
      "##obb": 886,
      "kunde": 887,
      "plats": 888,
      "##by": 889,
      "##yrk": 890,
      "läm": 891,
      "##igaste": 892,
      "berätt": 893,
      "lite": 894,
      "##pel": 895,
      "bort": 896,
      "##jör": 897,
      "##älj": 898,
      "lik": 899,
      "##lighet": 900,
      "procent": 901,
      "fått": 902,
      "##lass": 903,
      "bygg": 904,
      "stad": 905,
      "tidigare": 906,
      "##ås": 907,
      "##app": 908,
      "dock": 909,
      "##ånd": 910,
      "##hl": 911,
      "##staden": 912,
      "##häll": 913,
      "##oder": 914,
      "änd": 915,
      "lär": 916,
      "##öder": 917,
      "##nan": 918,
      "##spel": 919,
      "##vin": 920,
      "anv": 921,
      "##eller": 922,
      "na": 923,
      "plan": 924,
      "dess": 925,
      "regn": 926,
      "##alv": 927,
      "redan": 928,
      "##par": 929,
      "##aka": 930,
      "fem": 931,
      "for": 932,
      "sjuk": 933,
      "##lut": 934,
      "svensk": 935,
      "##rad": 936,
      "hos": 937,
      "par": 938,
      "Y": 939,
      "##med": 940,
      "Al": 941,
      "##årt": 942,
      "havet": 943,
      "##ac": 944,
      "gäller": 945,
      "mö": 946,
      "##ej": 947,
      "Till": 948,
      "##tag": 949,
      "##mans": 950,
      "##öst": 951,
      "##ativ": 952,
      "intress": 953,
      "nog": 954,
      "större": 955,
      "##uter": 956,
      "##nader": 957,
      "##EN": 958,
      "##res": 959,
      "##err": 960,
      "##andet": 961,
      "##rid": 962,
      "##anden": 963,
      "##ärk": 964,
      "##form": 965,
      "bak": 966,
      "198": 967,
      "Gö": 968,
      "Sam": 969,
      "##skil": 970,
      "&": 971,
      "##ub": 972,
      "polit": 973,
      "##vet": 974,
      "##ib": 975,
      "##ubb": 976,
      "##konom": 977,
      "match": 978,
      "flera": 979,
      "Av": 980,
      "Genom": 981,
      "Efter": 982,
      "em": 983,
      "van": 984,
      "öpp": 985,
      "nord": 986,
      "gick": 987,
      "utveck": 988,
      "kvinn": 989,
      "##atan": 990,
      "##amp": 991,
      "##gel": 992,
      "tjän": 993,
      "##AR": 994,
      "##ldrig": 995,
      "vikt": 996,
      "både": 997,
      "##ret": 998,
      "si": 999,
      "människ": 1000,
      "##ellt": 1001,
      "##anu": 1002,
      "##erat": 1003,
      "hus": 1004,
      "skol": 1005,
      "värld": 1006,
      "god": 1007,
      "##yss": 1008,
      "hör": 1009,
      "val": 1010,
      "form": 1011,
      "väx": 1012,
      "##ow": 1013,
      "##går": 1014,
      "##raf": 1015,
      "##unkt": 1016,
      "enligt": 1017,
      "##blem": 1018,
      "##yll": 1019,
      "##uss": 1020,
      "dessa": 1021,
      "Så": 1022,
      "##äster": 1023,
      "aldrig": 1024,
      "##äs": 1025,
      "##merikansk": 1026,
      "ner": 1027,
      "##anuari": 1028,
      "läg": 1029,
      "##äder": 1030,
      "##ister": 1031,
      "##orn": 1032,
      "##rådet": 1033,
      "##SA": 1034,
      "januari": 1035,
      "mest": 1036,
      "mark": 1037,
      "##ont": 1038,
      "##skol": 1039,
      "##iet": 1040,
      "fär": 1041,
      "##rev": 1042,
      "##ända": 1043,
      "full": 1044,
      "##ings": 1045,
      "##of": 1046,
      "55": 1047,
      "lätt": 1048,
      "soci": 1049,
      "part": 1050,
      "följ": 1051,
      "Le": 1052,
      "tar": 1053,
      "##gifter": 1054,
      "##yt": 1055,
      "förl": 1056,
      "##pro": 1057,
      "##ående": 1058,
      "ger": 1059,
      "grund": 1060,
      "kanske": 1061,
      "##uro": 1062,
      "mindre": 1063,
      "ekonom": 1064,
      "po": 1065,
      "##ron": 1066,
      "Ex": 1067,
      "varje": 1068,
      "##ationen": 1069,
      "35": 1070,
      "##limat": 1071,
      "##rama": 1072,
      "##vit": 1073,
      "##ga": 1074,
      "dig": 1075,
      "##arn": 1076,
      "stat": 1077,
      "egen": 1078,
      "reger": 1079,
      "polis": 1080,
      "svar": 1081,
      "samhäll": 1082,
      "##ritt": 1083,
      "familj": 1084,
      "Att": 1085,
      "huvudstaden": 1086,
      "##met": 1087,
      "##ationer": 1088,
      "##fta": 1089,
      "##fl": 1090,
      "##eh": 1091,
      "syd": 1092,
      "Ander": 1093,
      "tog": 1094,
      "##istor": 1095,
      "genomsnitt": 1096,
      "##ättre": 1097,
      "##räck": 1098,
      "Sv": 1099,
      "tillb": 1100,
      "##ystem": 1101,
      "##nabb": 1102,
      "ytt": 1103,
      "gjorde": 1104,
      "##yk": 1105,
      "sid": 1106,
      "direkt": 1107,
      "##ember": 1108,
      "natur": 1109,
      "##oner": 1110,
      "gen": 1111,
      "##imeter": 1112,
      "hitt": 1113,
      "Bo": 1114,
      "##dukt": 1115,
      "##åller": 1116,
      "sön": 1117,
      "##drag": 1118,
      "tror": 1119,
      "cent": 1120,
      "##pt": 1121,
      "kör": 1122,
      "##lägg": 1123,
      "Pro": 1124,
      "##edi": 1125,
      "vilket": 1126,
      "säker": 1127,
      "fyra": 1128,
      "##klar": 1129,
      "bättre": 1130,
      "##me": 1131,
      "##sök": 1132,
      "dom": 1133,
      "##lick": 1134,
      "##ekn": 1135,
      "##agen": 1136,
      "fot": 1137,
      "197": 1138,
      "Svensk": 1139,
      "TV": 1140,
      "Under": 1141,
      "##ren": 1142,
      "känn": 1143,
      "just": 1144,
      "vän": 1145,
      "##mn": 1146,
      "skri": 1147,
      "inför": 1148,
      "*": 1149,
      "invån": 1150,
      "on": 1151,
      "##yl": 1152,
      "öv": 1153,
      "Årsm": 1154,
      "varmaste": 1155,
      "ön": 1156,
      "##anis": 1157,
      "jobb": 1158,
      "##sg": 1159,
      "kvad": 1160,
      "kallaste": 1161,
      "##ore": 1162,
      "##råk": 1163,
      "Ut": 1164,
      "##raste": 1165,
      "kvar": 1166,
      "##onen": 1167,
      "kvadrat": 1168,
      "gjort": 1169,
      "annan": 1170,
      "##AN": 1171,
      "komma": 1172,
      "##jur": 1173,
      "Var": 1174,
      "ök": 1175,
      "syn": 1176,
      "Har": 1177,
      "##ran": 1178,
      "##ip": 1179,
      "mill": 1180,
      "##ond": 1181,
      "##satt": 1182,
      "roll": 1183,
      "##varande": 1184,
      "rik": 1185,
      "mån": 1186,
      "al": 1187,
      "juli": 1188,
      "ned": 1189,
      "##ras": 1190,
      "##far": 1191,
      "ge": 1192,
      "##sdag": 1193,
      "##ioner": 1194,
      "står": 1195,
      "invånare": 1196,
      "##äkt": 1197,
      "Upp": 1198,
      "mitt": 1199,
      "##samhet": 1200,
      "sär": 1201,
      "millimeter": 1202,
      "##vs": 1203,
      "##illa": 1204,
      "bok": 1205,
      "äg": 1206,
      "rad": 1207,
      "red": 1208,
      "ind": 1209,
      "före": 1210,
      "lyck": 1211,
      "##ian": 1212,
      "äl": 1213,
      "förv": 1214,
      "Z": 1215,
      "Genomsnitt": 1216,
      "##eci": 1217,
      "köp": 1218,
      "##under": 1219,
      "Då": 1220,
      "##nat": 1221,
      "Genomsnittlig": 1222,
      "##hör": 1223,
      "lön": 1224,
      "årsn": 1225,
      "torraste": 1226,
      "regnigaste": 1227,
      "årsnederbörd": 1228,
      "##kilometer": 1229,
      "snabb": 1230,
      "##gift": 1231,
      "##trä": 1232,
      "##skar": 1233,
      "##ög": 1234,
      "##ess": 1235,
      "pass": 1236,
      "exem": 1237,
      "igen": 1238,
      "##lingen": 1239,
      "24": 1240,
      "vatten": 1241,
      "##IN": 1242,
      "##van": 1243,
      "våra": 1244,
      "tiden": 1245,
      "senare": 1246,
      "senast": 1247,
      "innan": 1248,
      "id": 1249,
      "##lek": 1250,
      "lika": 1251,
      "##ons": 1252,
      "##ligare": 1253,
      "ni": 1254,
      "##vent": 1255,
      "sådan": 1256,
      "##kte": 1257,
      "##bildning": 1258,
      "kän": 1259,
      "sex": 1260,
      "försök": 1261,
      "##ater": 1262,
      "##andel": 1263,
      "huvudsak": 1264,
      "##bef": 1265,
      "Som": 1266,
      "##las": 1267,
      "08": 1268,
      "##öt": 1269,
      "alltid": 1270,
      "kost": 1271,
      "##ektiv": 1272,
      "Ro": 1273,
      "Tel": 1274,
      "##port": 1275,
      "blivit": 1276,
      "Erik": 1277,
      "##our": 1278,
      "##orter": 1279,
      "Br": 1280,
      "##int": 1281,
      "##ressen": 1282,
      "Vid": 1283,
      "##ött": 1284,
      "tycker": 1285,
      "##stånd": 1286,
      "te": 1287,
      "halv": 1288,
      "off": 1289,
      "##pris": 1290,
      "##ennes": 1291,
      "års": 1292,
      "##män": 1293,
      "##ner": 1294,
      "USA": 1295,
      "Här": 1296,
      "##väst": 1297,
      "Reg": 1298,
      "##från": 1299,
      "start": 1300,
      "196": 1301,
      "änn": 1302,
      "El": 1303,
      "##ärna": 1304,
      "##ynd": 1305,
      "ännu": 1306,
      "##ryck": 1307,
      "##sammans": 1308,
      "kväll": 1309,
      "företag": 1310,
      "##ote": 1311,
      "##sid": 1312,
      "Per": 1313,
      "##rade": 1314,
      "##faren": 1315,
      "##köp": 1316,
      "##rikt": 1317,
      "##ingar": 1318,
      "##ultur": 1319,
      "rör": 1320,
      "musik": 1321,
      "Amerikansk": 1322,
      "Mar": 1323,
      "tim": 1324,
      "nära": 1325,
      "tag": 1326,
      "##etta": 1327,
      "##fråg": 1328,
      "##he": 1329,
      "inneb": 1330,
      "Dag": 1331,
      "100": 1332,
      "problem": 1333,
      "beg": 1334,
      "fred": 1335,
      "död": 1336,
      "kort": 1337,
      "##jer": 1338,
      "hopp": 1339,
      "##its": 1340,
      "förm": 1341,
      "tillbaka": 1342,
      "sa": 1343,
      "därför": 1344,
      "bästa": 1345,
      "##öv": 1346,
      "##tidigt": 1347,
      "program": 1348,
      "##iver": 1349,
      "ad": 1350,
      "##ugust": 1351,
      "låg": 1352,
      "##iker": 1353,
      "Johan": 1354,
      "samman": 1355,
      "##ich": 1356,
      "beslut": 1357,
      "##ift": 1358,
      "##iten": 1359,
      "##okrat": 1360,
      "##fall": 1361,
      "Vad": 1362,
      "##olog": 1363,
      "##slut": 1364,
      "Ol": 1365,
      "##nen": 1366,
      "##ct": 1367,
      "Gu": 1368,
      "nytt": 1369,
      "##äpp": 1370,
      "ca": 1371,
      "människor": 1372,
      "sista": 1373,
      "##inner": 1374,
      "##takt": 1375,
      "krä": 1376,
      "exempel": 1377,
      "##sst": 1378,
      "##ära": 1379,
      "Ma": 1380,
      "##ått": 1381,
      "stort": 1382,
      "##osit": 1383,
      "senaste": 1384,
      "bef": 1385,
      "övr": 1386,
      "lå": 1387,
      "rum": 1388,
      "ytter": 1389,
      "##lem": 1390,
      "##uni": 1391,
      "##ängen": 1392,
      "The": 1393,
      "deras": 1394,
      "pris": 1395,
      "peng": 1396,
      "##una": 1397,
      "##efon": 1398,
      "##up": 1399,
      "##ultat": 1400,
      "##ument": 1401,
      "05": 1402,
      "grupp": 1403,
      "behöver": 1404,
      "##ST": 1405,
      "##talet": 1406,
      "Karl": 1407,
      "##ral": 1408,
      "Tra": 1409,
      "komp": 1410,
      "##befolk": 1411,
      "##chef": 1412,
      "ganska": 1413,
      "anställ": 1414,
      "##ernas": 1415,
      "##eln": 1416,
      "##ysk": 1417,
      "räk": 1418,
      "namn": 1419,
      "jäm": 1420,
      "speci": 1421,
      "film": 1422,
      "##elt": 1423,
      "största": 1424,
      "maj": 1425,
      "utt": 1426,
      "personer": 1427,
      "60": 1428,
      "hjälp": 1429,
      "##val": 1430,
      "##ffär": 1431,
      "Exp": 1432,
      "##terna": 1433,
      "##jud": 1434,
      "mil": 1435,
      "##mark": 1436,
      "##teborg": 1437,
      "Kan": 1438,
      "##ON": 1439,
      "##ena": 1440,
      "##lden": 1441,
      "##ator": 1442,
      "flyg": 1443,
      "##dast": 1444,
      "Hans": 1445,
      "miljoner": 1446,
      "styr": 1447,
      "fler": 1448,
      "näst": 1449,
      "august": 1450,
      "bek": 1451,
      "##inna": 1452,
      "talet": 1453,
      "söker": 1454,
      "##ke": 1455,
      "##vist": 1456,
      "##vid": 1457,
      "högsta": 1458,
      "små": 1459,
      "##spl": 1460,
      "miss": 1461,
      "Fl": 1462,
      "augusti": 1463,
      "##OR": 1464,
      "besk": 1465,
      "%": 1466,
      "fakt": 1467,
      "ofta": 1468,
      "främ": 1469,
      "##gren": 1470,
      "fortsätt": 1471,
      "DN": 1472,
      "##plan": 1473,
      "##enne": 1474,
      "##lingar": 1475,
      "##boll": 1476,
      "gamla": 1477,
      "Detta": 1478,
      "Stockholms": 1479,
      "kär": 1480,
      "##ham": 1481,
      "##ada": 1482,
      "vidare": 1483,
      "stället": 1484,
      "Göteborg": 1485,
      "lok": 1486,
      "tillsammans": 1487,
      "lör": 1488,
      "längre": 1489,
      "##uc": 1490,
      "ins": 1491,
      "##kur": 1492,
      "##jö": 1493,
      "ansvar": 1494,
      "##als": 1495,
      "juni": 1496,
      "arbete": 1497,
      "sol": 1498,
      "hennes": 1499,
      "svårt": 1500,
      "tekn": 1501,
      "haft": 1502,
      "slag": 1503,
      "Hur": 1504,
      "Ne": 1505,
      "##elser": 1506,
      "bestäm": 1507,
      "gärna": 1508,
      "##ostad": 1509,
      "##lder": 1510,
      "disk": 1511,
      "##etter": 1512,
      "##väg": 1513,
      "Från": 1514,
      "##digt": 1515,
      "Kom": 1516,
      "##bart": 1517,
      "hän": 1518,
      "råder": 1519,
      "org": 1520,
      "##äx": 1521,
      "bety": 1522,
      "framför": 1523,
      "Dan": 1524,
      "##isst": 1525,
      "bed": 1526,
      "social": 1527,
      "w": 1528,
      "##ey": 1529,
      "##agn": 1530,
      "Malm": 1531,
      "ändå": 1532,
      "##ester": 1533,
      "##ay": 1534,
      "henne": 1535,
      "året": 1536,
      "Jan": 1537,
      "vänt": 1538,
      "##iva": 1539,
      "##enter": 1540,
      "und": 1541,
      "far": 1542,
      "histor": 1543,
      "##roll": 1544,
      "rep": 1545,
      "##arnas": 1546,
      "##dem": 1547,
      "##farenhet": 1548,
      "satt": 1549,
      "195": 1550,
      "ingår": 1551,
      "fann": 1552,
      "##dde": 1553,
      "tur": 1554,
      "##ton": 1555,
      "länge": 1556,
      "##jekt": 1557,
      "särskil": 1558,
      "långt": 1559,
      "Söder": 1560,
      "kap": 1561,
      "##fäll": 1562,
      "dec": 1563,
      "kro": 1564,
      "alltså": 1565,
      "##plats": 1566,
      "visar": 1567,
      "ext": 1568,
      "##oda": 1569,
      "dra": 1570,
      "Ni": 1571,
      "##bruk": 1572,
      "Lind": 1573,
      "194": 1574,
      "##jus": 1575,
      "##ubl": 1576,
      "bel": 1577,
      "AB": 1578,
      "trän": 1579,
      "Euro": 1580,
      "##ändigt": 1581,
      "ih": 1582,
      "krig": 1583,
      "##ong": 1584,
      "närheten": 1585,
      "Ste": 1586,
      "Er": 1587,
      "Norr": 1588,
      "##unkten": 1589,
      "Mari": 1590,
      "##lade": 1591,
      "##napp": 1592,
      "##ou": 1593,
      "##ften": 1594,
      "##olag": 1595,
      "tän": 1596,
      "ute": 1597,
      "##bil": 1598,
      "##bygg": 1599,
      "klar": 1600,
      "##olit": 1601,
      "##olv": 1602,
      "##bar": 1603,
      "tjänst": 1604,
      "produkt": 1605,
      "sä": 1606,
      "##unda": 1607,
      "Carl": 1608,
      "moder": 1609,
      "kn": 1610,
      "##ine": 1611,
      "bild": 1612,
      "Ing": 1613,
      "stud": 1614,
      "Berg": 1615,
      "säga": 1616,
      "förut": 1617,
      "omk": 1618,
      "Sch": 1619,
      "Stor": 1620,
      "ob": 1621,
      "##lands": 1622,
      "klass": 1623,
      "bor": 1624,
      "föd": 1625,
      "enk": 1626,
      "kval": 1627,
      "##yndighet": 1628,
      "träff": 1629,
      "enda": 1630,
      "såg": 1631,
      "##ET": 1632,
      "##uld": 1633,
      "##tta": 1634,
      "häl": 1635,
      "##stid": 1636,
      "##farande": 1637,
      "Fin": 1638,
      "Nor": 1639,
      "kraft": 1640,
      "hemma": 1641,
      "Bl": 1642,
      "##arbete": 1643,
      "Hel": 1644,
      "##ald": 1645,
      "skatt": 1646,
      "##ösa": 1647,
      "##bland": 1648,
      "började": 1649,
      "Trakten": 1650,
      "kontakt": 1651,
      "eftersom": 1652,
      "provin": 1653,
      "fel": 1654,
      "intern": 1655,
      "nästan": 1656,
      "##use": 1657,
      "art": 1658,
      "endast": 1659,
      "ungdom": 1660,
      "##pen": 1661,
      "stark": 1662,
      "inst": 1663,
      "fört": 1664,
      "##net": 1665,
      "rel": 1666,
      "##ydd": 1667,
      "Mo": 1668,
      "berättar": 1669,
      "##LL": 1670,
      "##gård": 1671,
      "##pri": 1672,
      "fle": 1673,
      "##bund": 1674,
      "allmän": 1675,
      "båda": 1676,
      "Nord": 1677,
      "täv": 1678,
      "män": 1679,
      "##mare": 1680,
      "##förs": 1681,
      "##skin": 1682,
      "Se": 1683,
      "väst": 1684,
      "bo": 1685,
      "trots": 1686,
      "feb": 1687,
      "början": 1688,
      "pri": 1689,
      "##fri": 1690,
      "##age": 1691,
      "Nil": 1692,
      "dagar": 1693,
      "Björ": 1694,
      "##ension": 1695,
      "inget": 1696,
      "##ograf": 1697,
      "##kar": 1698,
      "uppl": 1699,
      "själva": 1700,
      "Regi": 1701,
      "pengar": 1702,
      "gången": 1703,
      "##unger": 1704,
      "##ker": 1705,
      "minst": 1706,
      "skick": 1707,
      "utanför": 1708,
      "##ansen": 1709,
      "##mi": 1710,
      "utred": 1711,
      "##uper": 1712,
      "John": 1713,
      "##ita": 1714,
      "försvar": 1715,
      "##ux": 1716,
      "Q": 1717,
      "90": 1718,
      "##tr": 1719,
      "##sdagen": 1720,
      "pr": 1721,
      "ring": 1722,
      "26": 1723,
      "norr": 1724,
      "##fil": 1725,
      "Någ": 1726,
      "##ah": 1727,
      "spelar": 1728,
      "Sedan": 1729,
      "##äld": 1730,
      "##rand": 1731,
      "##reg": 1732,
      "##ruari": 1733,
      "Gun": 1734,
      "framtid": 1735,
      "innebär": 1736,
      "##över": 1737,
      "##spro": 1738,
      "medan": 1739,
      "inga": 1740,
      "##ode": 1741,
      "Runt": 1742,
      "##ge": 1743,
      "##qu": 1744,
      "27": 1745,
      "##ler": 1746,
      "arbets": 1747,
      "omfatt": 1748,
      "februari": 1749,
      "##ädd": 1750,
      "##errängen": 1751,
      "Sveriges": 1752,
      "tred": 1753,
      "Sh": 1754,
      "gått": 1755,
      "fråga": 1756,
      "nor": 1757,
      "et": 1758,
      "Lund": 1759,
      "##ork": 1760,
      "Britt": 1761,
      "##rukt": 1762,
      "##fär": 1763,
      "Peter": 1764,
      "riktigt": 1765,
      "gra": 1766,
      "fortfarande": 1767,
      "##sikt": 1768,
      "ville": 1769,
      "provinsen": 1770,
      "lever": 1771,
      "sade": 1772,
      "kons": 1773,
      "##lin": 1774,
      "flytt": 1775,
      "##IK": 1776,
      "##jut": 1777,
      "of": 1778,
      "vissa": 1779,
      "omkring": 1780,
      "ant": 1781,
      "##förande": 1782,
      "viss": 1783,
      "##ata": 1784,
      "förklar": 1785,
      "använd": 1786,
      "##ält": 1787,
      "jord": 1788,
      "80": 1789,
      "gener": 1790,
      "dr": 1791,
      "##åd": 1792,
      "##ert": 1793,
      "sep": 1794,
      "28": 1795,
      "omgiv": 1796,
      "fanns": 1797,
      "klart": 1798,
      "##styr": 1799,
      "sett": 1800,
      "håller": 1801,
      "sag": 1802,
      "##cen": 1803,
      "helst": 1804,
      "organis": 1805,
      "ytterligare": 1806,
      "Repris": 1807,
      "##ev": 1808,
      "tänk": 1809,
      "##ivt": 1810,
      "kilometer": 1811,
      "borde": 1812,
      "tio": 1813,
      "##äss": 1814,
      "##skog": 1815,
      "##cis": 1816,
      "världen": 1817,
      "länder": 1818,
      "mars": 1819,
      "läk": 1820,
      "lu": 1821,
      "##band": 1822,
      "liten": 1823,
      "resultat": 1824,
      "##råden": 1825,
      "##ander": 1826,
      "fj": 1827,
      "##formation": 1828,
      "vann": 1829,
      "##tember": 1830,
      "70": 1831,
      "##ige": 1832,
      "##itu": 1833,
      "##for": 1834,
      "»": 1835,
      "särskilt": 1836,
      "##bud": 1837,
      "dri": 1838,
      "stöd": 1839,
      "##skri": 1840,
      "##lac": 1841,
      "Inte": 1842,
      "papp": 1843,
      "VM": 1844,
      "december": 1845,
      "lopp": 1846,
      "risk": 1847,
      "kar": 1848,
      "Väst": 1849,
      "La": 1850,
      "nästa": 1851,
      "september": 1852,
      "prakt": 1853,
      "väldigt": 1854,
      "öster": 1855,
      "##nande": 1856,
      "bruk": 1857,
      "flick": 1858,
      "Pl": 1859,
      "##åga": 1860,
      "utbildning": 1861,
      "egna": 1862,
      "telefon": 1863,
      "kultur": 1864,
      "knapp": 1865,
      "eff": 1866,
      "bostad": 1867,
      "##ition": 1868,
      "ly": 1869,
      "punkten": 1870,
      "^": 1871,
      "##räd": 1872,
      "sek": 1873,
      "chef": 1874,
      "##aten": 1875,
      "vilka": 1876,
      "affär": 1877,
      "nov": 1878,
      "bakom": 1879,
      "Ham": 1880,
      "Par": 1881,
      "koll": 1882,
      "##ämt": 1883,
      "erfarenhet": 1884,
      "kring": 1885,
      "din": 1886,
      "##befolkat": 1887,
      "ög": 1888,
      "amerik": 1889,
      "##lund": 1890,
      "##alis": 1891,
      "##chen": 1892,
      "Expressen": 1893,
      "tredje": 1894,
      "söndag": 1895,
      "Är": 1896,
      "engel": 1897,
      "minuter": 1898,
      "samtidigt": 1899,
      "heller": 1900,
      "Ja": 1901,
      "##gar": 1902,
      "sy": 1903,
      "Ad": 1904,
      "gånger": 1905,
      "ej": 1906,
      "##klag": 1907,
      "vack": 1908,
      "##okument": 1909,
      "seger": 1910,
      "##slaget": 1911,
      "03": 1912,
      "##ins": 1913,
      "##minist": 1914,
      "Eng": 1915,
      "##derna": 1916,
      "##kor": 1917,
      "##ustri": 1918,
      "topp": 1919,
      "##samma": 1920,
      "kvinnor": 1921,
      "Enligt": 1922,
      "##end": 1923,
      "förra": 1924,
      "##delning": 1925,
      "hund": 1926,
      "##cke": 1927,
      "##ören": 1928,
      "##amm": 1929,
      "29": 1930,
      "gav": 1931,
      "Alla": 1932,
      "##emot": 1933,
      "tank": 1934,
      "tom": 1935,
      "säson": 1936,
      "rollerna": 1937,
      "tot": 1938,
      "Ed": 1939,
      "ham": 1940,
      "Or": 1941,
      "31": 1942,
      "söder": 1943,
      "skad": 1944,
      "##part": 1945,
      "gott": 1946,
      "hålla": 1947,
      "Kon": 1948,
      "##ana": 1949,
      "##ober": 1950,
      "Jon": 1951,
      "##juk": 1952,
      "##ärt": 1953,
      "kvm": 1954,
      "New": 1955,
      "##bo": 1956,
      "##anter": 1957,
      "ålder": 1958,
      "kri": 1959,
      "konkur": 1960,
      "börjar": 1961,
      "utveckling": 1962,
      "ste": 1963,
      "and": 1964,
      "75": 1965,
      "##olf": 1966,
      "##ice": 1967,
      "##råd": 1968,
      "vilken": 1969,
      "cir": 1970,
      "im": 1971,
      "krit": 1972,
      "medlem": 1973,
      "regeringen": 1974,
      "Lars": 1975,
      "flesta": 1976,
      "okt": 1977,
      "extra": 1978,
      "näm": 1979,
      "erb": 1980,
      "Arbet": 1981,
      "handlar": 1982,
      "##ämp": 1983,
      "goda": 1984,
      "##one": 1985,
      "##utt": 1986,
      "Gusta": 1987,
      "##ING": 1988,
      "besök": 1989,
      "utl": 1990,
      "##annen": 1991,
      "Andersson": 1992,
      "stra": 1993,
      "##orgon": 1994,
      "##75": 1995,
      "am": 1996,
      "##smark": 1997,
      "##rän": 1998,
      "##köping": 1999,
      "lördag": 2000,
      "alls": 2001,
      "##råde": 2002,
      "##full": 2003,
      "##jänst": 2004,
      "##vård": 2005,
      "##ligheter": 2006,
      "känner": 2007,
      "Dess": 2008,
      "avl": 2009,
      "månader": 2010,
      "deb": 2011,
      "emot": 2012,
      "##enskap": 2013,
      "vårt": 2014,
      "dagen": 2015,
      "##ringar": 2016,
      "mots": 2017,
      "dessutom": 2018,
      "hjär": 2019,
      "by": 2020,
      "Sa": 2021,
      "##jen": 2022,
      "##amma": 2023,
      "##ställning": 2024,
      "svår": 2025,
      "forsk": 2026,
      "förhåll": 2027,
      "Lin": 2028,
      "Malmö": 2029,
      "##anc": 2030,
      "##iel": 2031,
      "brö": 2032,
      "åren": 2033,
      "ihop": 2034,
      "##gär": 2035,
      "di": 2036,
      "##demokrat": 2037,
      "##sd": 2038,
      "län": 2039,
      "kommit": 2040,
      "##sin": 2041,
      "Fri": 2042,
      "Tro": 2043,
      "Tv": 2044,
      "##väll": 2045,
      "önsk": 2046,
      "##olis": 2047,
      "häst": 2048,
      "kur": 2049,
      "##rala": 2050,
      "berg": 2051,
      "skog": 2052,
      "##igheter": 2053,
      "##arm": 2054,
      "spela": 2055,
      "##delse": 2056,
      "##fer": 2057,
      "Dagens": 2058,
      "tu": 2059,
      "titt": 2060,
      "##kn": 2061,
      "##bert": 2062,
      "internation": 2063,
      "dist": 2064,
      "##itut": 2065,
      "tem": 2066,
      "dram": 2067,
      "tis": 2068,
      "Fred": 2069,
      "##ha": 2070,
      "##pe": 2071,
      "##mal": 2072,
      "skriv": 2073,
      "##vik": 2074,
      "öst": 2075,
      "behand": 2076,
      "##öts": 2077,
      "##ledare": 2078,
      "seri": 2079,
      "##senter": 2080,
      "ansök": 2081,
      "##pril": 2082,
      "##ellertid": 2083,
      "##oss": 2084,
      "##huset": 2085,
      "rapp": 2086,
      "system": 2087,
      "resp": 2088,
      "bad": 2089,
      "Kl": 2090,
      "föränd": 2091,
      "##br": 2092,
      "misst": 2093,
      "##20": 2094,
      "##iller": 2095,
      "ens": 2096,
      "ton": 2097,
      "##unnit": 2098,
      "kor": 2099,
      "##efter": 2100,
      "tyd": 2101,
      "klubb": 2102,
      "tj": 2103,
      "##qvist": 2104,
      "##änner": 2105,
      "##gården": 2106,
      "oktober": 2107,
      "tillfäll": 2108,
      "##tes": 2109,
      "består": 2110,
      "kvinna": 2111,
      "icke": 2112,
      "##ykt": 2113,
      "fotboll": 2114,
      "Johansson": 2115,
      "##ake": 2116,
      "livet": 2117,
      "allvar": 2118,
      "verksamhet": 2119,
      "Nyheter": 2120,
      "##och": 2121,
      "säll": 2122,
      "##SK": 2123,
      "500": 2124,
      "april": 2125,
      "väster": 2126,
      "y": 2127,
      "november": 2128,
      "information": 2129,
      "lägg": 2130,
      "författ": 2131,
      "stod": 2132,
      "##skatt": 2133,
      "kyrk": 2134,
      "##åld": 2135,
      "##bro": 2136,
      "bas": 2137,
      "sälj": 2138,
      "förslag": 2139,
      "bid": 2140,
      "##liv": 2141,
      "##aler": 2142,
      "Svenska": 2143,
      "Be": 2144,
      "svart": 2145,
      "##uella": 2146,
      "priv": 2147,
      "poäng": 2148,
      "##ions": 2149,
      "##syk": 2150,
      "##ödra": 2151,
      "höj": 2152,
      "Terrängen": 2153,
      "sidan": 2154,
      "##off": 2155,
      "personal": 2156,
      "##väl": 2157,
      "##åde": 2158,
      "sju": 2159,
      "sommar": 2160,
      "##ille": 2161,
      "frågan": 2162,
      "bud": 2163,
      "gar": 2164,
      "brott": 2165,
      "nordväst": 2166,
      "X": 2167,
      "##repp": 2168,
      "Program": 2169,
      "met": 2170,
      "Gör": 2171,
      "##öll": 2172,
      "Tid": 2173,
      "pä": 2174,
      "##ifrån": 2175,
      "##yng": 2176,
      "##ills": 2177,
      "förlor": 2178,
      "##ric": 2179,
      "växer": 2180,
      "uppgift": 2181,
      "Bar": 2182,
      "tagit": 2183,
      "##kta": 2184,
      "##ext": 2185,
      "Anders": 2186,
      "kam": 2187,
      "Vär": 2188,
      "emellertid": 2189,
      "utom": 2190,
      "råd": 2191,
      "anser": 2192,
      "##rog": 2193,
      "##ierna": 2194,
      "rom": 2195,
      "##olut": 2196,
      "möjligt": 2197,
      "##tar": 2198,
      "lä": 2199,
      "skriver": 2200,
      "hot": 2201,
      "##eder": 2202,
      "##lad": 2203,
      "posit": 2204,
      "##talien": 2205,
      "##unden": 2206,
      "##rek": 2207,
      "##kommen": 2208,
      "giv": 2209,
      "stan": 2210,
      "##märk": 2211,
      "övriga": 2212,
      "betal": 2213,
      "verkligen": 2214,
      "stats": 2215,
      "##ären": 2216,
      "frågor": 2217,
      "området": 2218,
      "Sm": 2219,
      "##erande": 2220,
      "mass": 2221,
      "##verket": 2222,
      "Pa": 2223,
      "Sund": 2224,
      "polisen": 2225,
      "drama": 2226,
      "##räff": 2227,
      "##skt": 2228,
      "försv": 2229,
      "##AT": 2230,
      "##räng": 2231,
      "##ite": 2232,
      "##kont": 2233,
      "##skott": 2234,
      "varandra": 2235,
      "##usk": 2236,
      "arbetar": 2237,
      "##följ": 2238,
      "##gj": 2239,
      "chans": 2240,
      "##mera": 2241,
      "ovan": 2242,
      "Kar": 2243,
      "Jo": 2244,
      "Frank": 2245,
      "##alk": 2246,
      "##ure": 2247,
      "fatt": 2248,
      "traf": 2249,
      "##ivers": 2250,
      "##ity": 2251,
      "##ening": 2252,
      "uppgifter": 2253,
      "snabbt": 2254,
      "gem": 2255,
      "##AL": 2256,
      "##otell": 2257,
      "##be": 2258,
      "##lla": 2259,
      "krav": 2260,
      "##till": 2261,
      "##rep": 2262,
      "dans": 2263,
      "##öter": 2264,
      "##eställ": 2265,
      "##raft": 2266,
      "märk": 2267,
      "född": 2268,
      "bäst": 2269,
      "##enten": 2270,
      "Kung": 2271,
      "##rust": 2272,
      "dam": 2273,
      "##lat": 2274,
      "funger": 2275,
      "##fess": 2276,
      "##30": 2277,
      "Dessutom": 2278,
      "##örj": 2279,
      "##entligen": 2280,
      "vård": 2281,
      "nation": 2282,
      "##lic": 2283,
      "Am": 2284,
      "##ilja": 2285,
      "föräld": 2286,
      "##skaper": 2287,
      "delar": 2288,
      "##orit": 2289,
      "Sol": 2290,
      "veckan": 2291,
      "##orge": 2292,
      "##väx": 2293,
      "##komm": 2294,
      "ab": 2295,
      "##serv": 2296,
      "##skan": 2297,
      "Drama": 2298,
      "##ligheten": 2299,
      "fart": 2300,
      "centrala": 2301,
      "##ligtvis": 2302,
      "sov": 2303,
      "##get": 2304,
      "seg": 2305,
      "menar": 2306,
      "##gatan": 2307,
      "amerikanska": 2308,
      "Allt": 2309,
      "Min": 2310,
      "försälj": 2311,
      "varför": 2312,
      "##ium": 2313,
      "##ummer": 2314,
      "inter": 2315,
      "föres": 2316,
      "tack": 2317,
      "prat": 2318,
      "ljus": 2319,
      "##iz": 2320,
      "dö": 2321,
      "kök": 2322,
      "##rör": 2323,
      "jämför": 2324,
      "dott": 2325,
      "nämligen": 2326,
      "Beng": 2327,
      "Car": 2328,
      "lös": 2329,
      "stu": 2330,
      "Ind": 2331,
      "äldre": 2332,
      "Än": 2333,
      "prin": 2334,
      "samhälle": 2335,
      "##ep": 2336,
      "##samheten": 2337,
      "##lipp": 2338,
      "lägen": 2339,
      "##jet": 2340,
      "##wa": 2341,
      "Sen": 2342,
      "##handling": 2343,
      "##cker": 2344,
      "sats": 2345,
      "sådana": 2346,
      "marknad": 2347,
      "medel": 2348,
      "natt": 2349,
      "hy": 2350,
      "##klimat": 2351,
      "##punkt": 2352,
      "SV": 2353,
      "##ärn": 2354,
      "timmar": 2355,
      "the": 2356,
      "##åk": 2357,
      "lug": 2358,
      "##nytt": 2359,
      "##gående": 2360,
      "trev": 2361,
      "regering": 2362,
      "pat": 2363,
      "Ul": 2364,
      "Djur": 2365,
      "precis": 2366,
      "##40": 2367,
      "##grupp": 2368,
      "myndighet": 2369,
      "engelska": 2370,
      "teck": 2371,
      "##igen": 2372,
      "##sättning": 2373,
      "meddel": 2374,
      "65": 2375,
      "##skriv": 2376,
      "nöd": 2377,
      "##skolan": 2378,
      "##oden": 2379,
      "kropp": 2380,
      "##fin": 2381,
      "##bin": 2382,
      "publ": 2383,
      "##täck": 2384,
      "liksom": 2385,
      "Svar": 2386,
      "tving": 2387,
      "##kade": 2388,
      "vägen": 2389,
      "antal": 2390,
      "betyd": 2391,
      "sitter": 2392,
      "EU": 2393,
      "mor": 2394,
      "##ysningar": 2395,
      "avgör": 2396,
      "månad": 2397,
      "##uppgifter": 2398,
      "##ledning": 2399,
      "sagt": 2400,
      "snart": 2401,
      "veta": 2402,
      "##19": 2403,
      "##samt": 2404,
      "##omas": 2405,
      "post": 2406,
      "+": 2407,
      "cirka": 2408,
      "Pris": 2409,
      "peri": 2410,
      "ka": 2411,
      "mera": 2412,
      "fortsatt": 2413,
      "##rarna": 2414,
      "förek": 2415,
      "##ood": 2416,
      "##alet": 2417,
      "##rip": 2418,
      "bank": 2419,
      "Barn": 2420,
      "Gr": 2421,
      "##ivå": 2422,
      "högre": 2423,
      "räck": 2424,
      "##stol": 2425,
      "höll": 2426,
      "slutet": 2427,
      "##si": 2428,
      "spelare": 2429,
      "litet": 2430,
      "##lande": 2431,
      "##ach": 2432,
      "undersök": 2433,
      "##ersätt": 2434,
      "32": 2435,
      "ja": 2436,
      "våld": 2437,
      "ST": 2438,
      "tje": 2439,
      "Hen": 2440,
      "33": 2441,
      "2014": 2442,
      "##likt": 2443,
      "##list": 2444,
      "Två": 2445,
      "Ingen": 2446,
      "Ge": 2447,
      "trö": 2448,
      "fisk": 2449,
      "pension": 2450,
      "serv": 2451,
      "milit": 2452,
      "Lar": 2453,
      "##mäl": 2454,
      "##oj": 2455,
      "##ix": 2456,
      "händer": 2457,
      "##ny": 2458,
      "##yskland": 2459,
      "##abrik": 2460,
      "Bengt": 2461,
      "##oligt": 2462,
      "matchen": 2463,
      "##AG": 2464,
      "Kh": 2465,
      "##okumentär": 2466,
      "hoppas": 2467,
      "##dar": 2468,
      "##teck": 2469,
      "sydväst": 2470,
      "Europa": 2471,
      "Fil": 2472,
      "##entet": 2473,
      "stäm": 2474,
      "bred": 2475,
      "Tor": 2476,
      "möjlighet": 2477,
      "plac": 2478,
      "guld": 2479,
      "Ju": 2480,
      "gammal": 2481,
      "##ue": 2482,
      "skr": 2483,
      "situ": 2484,
      "##rike": 2485,
      "##otten": 2486,
      "kat": 2487,
      "behov": 2488,
      "vecka": 2489,
      "sem": 2490,
      "##örer": 2491,
      "Dav": 2492,
      "##blad": 2493,
      "##ökte": 2494,
      "Folk": 2495,
      "heter": 2496,
      "ske": 2497,
      "##oret": 2498,
      "##håller": 2499,
      "Öst": 2500,
      "avslut": 2501,
      "skär": 2502,
      "låt": 2503,
      "sjö": 2504,
      "nöj": 2505,
      "##10": 2506,
      "##ourna": 2507,
      "##th": 2508,
      "|": 2509,
      "Mart": 2510,
      "Tre": 2511,
      "##itter": 2512,
      "bit": 2513,
      "känns": 2514,
      "##asin": 2515,
      "ordförande": 2516,
      "##olaget": 2517,
      "Rad": 2518,
      "##ssk": 2519,
      "##ager": 2520,
      "miljö": 2521,
      "Sl": 2522,
      "scen": 2523,
      "Nilsson": 2524,
      "poj": 2525,
      "finans": 2526,
      "tills": 2527,
      "##värd": 2528,
      "säkerhet": 2529,
      "##hem": 2530,
      "säkert": 2531,
      "##orten": 2532,
      "unga": 2533,
      "arbeta": 2534,
      "yrk": 2535,
      "fördel": 2536,
      "mode": 2537,
      "laget": 2538,
      "36": 2539,
      "##äkring": 2540,
      "ibland": 2541,
      "##uellt": 2542,
      "slog": 2543,
      "##mast": 2544,
      "oper": 2545,
      "visade": 2546,
      "##står": 2547,
      "talar": 2548,
      "pop": 2549,
      "psyk": 2550,
      "fant": 2551,
      "politiska": 2552,
      "##ppar": 2553,
      "släpp": 2554,
      "presid": 2555,
      "verkar": 2556,
      "##illar": 2557,
      "Ta": 2558,
      "egentligen": 2559,
      "ren": 2560,
      "rö": 2561,
      "##iti": 2562,
      "##alj": 2563,
      "dju": 2564,
      "##cess": 2565,
      "##oppen": 2566,
      "ögon": 2567,
      "övrigt": 2568,
      "##skomm": 2569,
      "lev": 2570,
      "##på": 2571,
      "spår": 2572,
      "##röv": 2573,
      "dryg": 2574,
      "##ovis": 2575,
      "lin": 2576,
      "##anske": 2577,
      "Vil": 2578,
      "Mot": 2579,
      "##sled": 2580,
      "jul": 2581,
      "star": 2582,
      "##lex": 2583,
      "eget": 2584,
      "Gunnar": 2585,
      "projekt": 2586,
      "främst": 2587,
      "kommuna": 2588,
      "##ände": 2589,
      "komedi": 2590,
      "ör": 2591,
      "framgång": 2592,
      "##splats": 2593,
      "##rikes": 2594,
      "is": 2595,
      "Ring": 2596,
      "fyll": 2597,
      "##ändska": 2598,
      "##ständ": 2599,
      "nämn": 2600,
      "##efär": 2601,
      "Mon": 2602,
      "norm": 2603,
      "fru": 2604,
      "##sut": 2605,
      "Ek": 2606,
      "samband": 2607,
      "193": 2608,
      "And": 2609,
      "2015": 2610,
      "fredag": 2611,
      "##oter": 2612,
      "##sav": 2613,
      "##lunda": 2614,
      "##we": 2615,
      "Lond": 2616,
      "Res": 2617,
      "resa": 2618,
      "##igh": 2619,
      "Björn": 2620,
      "spelade": 2621,
      "##anta": 2622,
      "gles": 2623,
      "rek": 2624,
      "##iteten": 2625,
      "##juder": 2626,
      "industri": 2627,
      "##riller": 2628,
      "Lu": 2629,
      "inb": 2630,
      "##deles": 2631,
      "son": 2632,
      "Bro": 2633,
      "rädd": 2634,
      "båt": 2635,
      "Ann": 2636,
      "##ction": 2637,
      "Hög": 2638,
      "höst": 2639,
      "##co": 2640,
      "##ferens": 2641,
      "##gräns": 2642,
      "##au": 2643,
      "faktiskt": 2644,
      "##delningen": 2645,
      "tänker": 2646,
      "vind": 2647,
      "Mich": 2648,
      "##komst": 2649,
      "##bara": 2650,
      "##amen": 2651,
      "##dant": 2652,
      "Brittisk": 2653,
      "dubb": 2654,
      "brukar": 2655,
      "##mär": 2656,
      "insats": 2657,
      "huvudsakligen": 2658,
      "ekonomiska": 2659,
      "trafik": 2660,
      "enkelt": 2661,
      "##staur": 2662,
      "färg": 2663,
      "##ordet": 2664,
      "##omb": 2665,
      "##genom": 2666,
      "##70": 2667,
      "##emang": 2668,
      "stå": 2669,
      "intresse": 2670,
      "vinna": 2671,
      "2013": 2672,
      "##oende": 2673,
      "##vänd": 2674,
      "platt": 2675,
      "jätt": 2676,
      "##åning": 2677,
      "##ath": 2678,
      "djur": 2679,
      "Bir": 2680,
      "##anen": 2681,
      "åtgär": 2682,
      "##arbetare": 2683,
      "därmed": 2684,
      "Christ": 2685,
      "ry": 2686,
      "##reter": 2687,
      "##sel": 2688,
      "##old": 2689,
      "tät": 2690,
      "Em": 2691,
      "##ahl": 2692,
      "##istiska": 2693,
      "##dags": 2694,
      "grä": 2695,
      "läge": 2696,
      "##jan": 2697,
      "##EL": 2698,
      "hum": 2699,
      "Anna": 2700,
      "##skapet": 2701,
      "##ever": 2702,
      "##resent": 2703,
      "##15": 2704,
      "##förbund": 2705,
      "##ve": 2706,
      "##iner": 2707,
      "kärlek": 2708,
      "utför": 2709,
      "do": 2710,
      "##anan": 2711,
      "vux": 2712,
      "##ula": 2713,
      "uppe": 2714,
      "drabb": 2715,
      "skrev": 2716,
      "omgivningarna": 2717,
      "krimin": 2718,
      "gemens": 2719,
      "dröm": 2720,
      "##etag": 2721,
      "##ÖR": 2722,
      "Upps": 2723,
      "##pass": 2724,
      "##hav": 2725,
      "press": 2726,
      "Komm": 2727,
      "röst": 2728,
      "##ökt": 2729,
      "lämnas": 2730,
      "arbetet": 2731,
      "##ktor": 2732,
      "fortsätter": 2733,
      "London": 2734,
      "bal": 2735,
      "morgon": 2736,
      "##60": 2737,
      "genomför": 2738,
      "profess": 2739,
      "##sgatan": 2740,
      "hårt": 2741,
      "##ius": 2742,
      "ansökan": 2743,
      "klara": 2744,
      "##18": 2745,
      "Öster": 2746,
      "##onst": 2747,
      "åtta": 2748,
      "##SS": 2749,
      "Komedi": 2750,
      "mör": 2751,
      "inled": 2752,
      "lek": 2753,
      "##fors": 2754,
      "hård": 2755,
      "träd": 2756,
      "SM": 2757,
      "uttryck": 2758,
      "##när": 2759,
      "stopp": 2760,
      "##nt": 2761,
      "He": 2762,
      "anställda": 2763,
      "materi": 2764,
      "dit": 2765,
      "##ugg": 2766,
      "##rister": 2767,
      "barnen": 2768,
      "maskin": 2769,
      "ersätt": 2770,
      "Sand": 2771,
      "Många": 2772,
      "##bergs": 2773,
      "sång": 2774,
      "Co": 2775,
      "Programledare": 2776,
      "Krist": 2777,
      "kunnat": 2778,
      "tillhör": 2779,
      "Musik": 2780,
      "amb": 2781,
      "##eta": 2782,
      "mina": 2783,
      "##gå": 2784,
      "visa": 2785,
      "veckor": 2786,
      "via": 2787,
      "Ha": 2788,
      "klimat": 2789,
      "exp": 2790,
      "##ästare": 2791,
      "steg": 2792,
      "antalet": 2793,
      "mar": 2794,
      "##24": 2795,
      "lilla": 2796,
      "lämna": 2797,
      "offent": 2798,
      "##edis": 2799,
      "fastighet": 2800,
      "fjär": 2801,
      "slå": 2802,
      "##ivil": 2803,
      "vit": 2804,
      "34": 2805,
      "beräk": 2806,
      "förbund": 2807,
      "nr": 2808,
      "Sc": 2809,
      "ener": 2810,
      "##gången": 2811,
      "gym": 2812,
      "##ternativ": 2813,
      "dagens": 2814,
      "Finland": 2815,
      "##uren": 2816,
      "sida": 2817,
      "glesbefolkat": 2818,
      "Bland": 2819,
      "straff": 2820,
      "Eric": 2821,
      "häls": 2822,
      "tryck": 2823,
      "tyska": 2824,
      "##ns": 2825,
      "##95": 2826,
      "##usen": 2827,
      "familjen": 2828,
      "##25": 2829,
      "##65": 2830,
      "##ica": 2831,
      "##ij": 2832,
      "Rik": 2833,
      "##fekt": 2834,
      "önskar": 2835,
      "viktigt": 2836,
      "##uell": 2837,
      "språk": 2838,
      "vitt": 2839,
      "##rav": 2840,
      "##sc": 2841,
      "alldeles": 2842,
      "Hall": 2843,
      "försöker": 2844,
      "##inne": 2845,
      "bi": 2846,
      "kamp": 2847,
      "85": 2848,
      "univers": 2849,
      "gt": 2850,
      "##stående": 2851,
      "Stad": 2852,
      "##po": 2853,
      "upptäck": 2854,
      "OS": 2855,
      "ben": 2856,
      "##CK": 2857,
      "##enting": 2858,
      "saker": 2859,
      "södra": 2860,
      "Därför": 2861,
      "värde": 2862,
      "##ännande": 2863,
      "Vis": 2864,
      "##ölja": 2865,
      "presenter": 2866,
      "ensam": 2867,
      "vattendrag": 2868,
      "##iddag": 2869,
      "ifrån": 2870,
      "Rom": 2871,
      "##atern": 2872,
      "##yld": 2873,
      "##inge": 2874,
      "fjol": 2875,
      "Ros": 2876,
      "ena": 2877,
      "kuper": 2878,
      "dels": 2879,
      "betyder": 2880,
      "##organis": 2881,
      "##ipp": 2882,
      "Uppsala": 2883,
      "##vakt": 2884,
      "skap": 2885,
      "##vju": 2886,
      "trans": 2887,
      "uppdrag": 2888,
      "##barn": 2889,
      "##järn": 2890,
      "tillg": 2891,
      "##shus": 2892,
      "såväl": 2893,
      "##ism": 2894,
      "sker": 2895,
      "ungefär": 2896,
      "##läg": 2897,
      "förstås": 2898,
      "Nej": 2899,
      "2010": 2900,
      "Land": 2901,
      "##aga": 2902,
      "sist": 2903,
      "Gl": 2904,
      "##sch": 2905,
      "Samtidigt": 2906,
      "2016": 2907,
      "##äls": 2908,
      "kuperad": 2909,
      "öppet": 2910,
      "me": 2911,
      "##ias": 2912,
      "samarbet": 2913,
      "Närmaste": 2914,
      "långa": 2915,
      "##oppet": 2916,
      "Göran": 2917,
      "##ännen": 2918,
      "tung": 2919,
      "färd": 2920,
      "2012": 2921,
      "skäl": 2922,
      "England": 2923,
      "igenom": 2924,
      "##dera": 2925,
      "skolan": 2926,
      "drygt": 2927,
      "2011": 2928,
      "världens": 2929,
      "##mål": 2930,
      "##ventyr": 2931,
      "Sov": 2932,
      "##zz": 2933,
      "typ": 2934,
      "historia": 2935,
      "Syd": 2936,
      "York": 2937,
      "##året": 2938,
      "##90": 2939,
      "merit": 2940,
      "##rande": 2941,
      "förutsätt": 2942,
      "jordbruk": 2943,
      "staden": 2944,
      "##ida": 2945,
      "drag": 2946,
      "Vill": 2947,
      "##ängd": 2948,
      "närmare": 2949,
      "uppfatt": 2950,
      "##aket": 2951,
      "vem": 2952,
      "snar": 2953,
      "##eld": 2954,
      "##minister": 2955,
      "sport": 2956,
      "##ora": 2957,
      "dör": 2958,
      "bered": 2959,
      "##ror": 2960,
      "Ph": 2961,
      "prov": 2962,
      "##urg": 2963,
      "politik": 2964,
      "eng": 2965,
      "handel": 2966,
      "underhåll": 2967,
      "##arder": 2968,
      "kast": 2969,
      "##polit": 2970,
      "socialdemokrat": 2971,
      "real": 2972,
      "38": 2973,
      "idrott": 2974,
      "##urt": 2975,
      "02": 2976,
      "##RI": 2977,
      "hotell": 2978,
      "fack": 2979,
      "sådant": 2980,
      "##ymp": 2981,
      "mannen": 2982,
      "köpa": 2983,
      "##OM": 2984,
      "tala": 2985,
      "avtal": 2986,
      "högt": 2987,
      "bedöm": 2988,
      "##ningens": 2989,
      "##ningss": 2990,
      "##miär": 2991,
      "nordost": 2992,
      "Bor": 2993,
      "##sett": 2994,
      "våg": 2995,
      "##agasin": 2996,
      "ang": 2997,
      "skydd": 2998,
      "ev": 2999,
      "tänka": 3000,
      "utgör": 3001,
      "Lac": 3002,
      "2008": 3003,
      "sätta": 3004,
      "##öf": 3005,
      "dat": 3006,
      "##ningsm": 3007,
      "Väl": 3008,
      "##ds": 3009,
      "##af": 3010,
      "##rym": 3011,
      "##ötsligt": 3012,
      "fäng": 3013,
      "##området": 3014,
      "##inal": 3015,
      "##ediserie": 3016,
      "sch": 3017,
      "naturligtvis": 3018,
      "tillverk": 3019,
      "diskuter": 3020,
      "os": 3021,
      "##östra": 3022,
      "Denna": 3023,
      "motstånd": 3024,
      "##allen": 3025,
      "bolag": 3026,
      "##bok": 3027,
      "##nämn": 3028,
      "300": 3029,
      "2009": 3030,
      "låter": 3031,
      "Martin": 3032,
      "Olof": 3033,
      "bill": 3034,
      "##PP": 3035,
      "skill": 3036,
      "44": 3037,
      "häv": 3038,
      "Will": 3039,
      "Gustaf": 3040,
      "##ital": 3041,
      "höger": 3042,
      "##styrelsen": 3043,
      "##öcker": 3044,
      "Larsson": 3045,
      "Lenn": 3046,
      "##ash": 3047,
      "rev": 3048,
      "##inst": 3049,
      "Sten": 3050,
      "For": 3051,
      "pub": 3052,
      "##ider": 3053,
      "Qu": 3054,
      "##aj": 3055,
      "olyck": 3056,
      "sjukhus": 3057,
      "parti": 3058,
      "##13": 3059,
      "##anna": 3060,
      "##ådespel": 3061,
      "lov": 3062,
      "Ser": 3063,
      "hittills": 3064,
      "britt": 3065,
      "rym": 3066,
      "stil": 3067,
      "95": 3068,
      "Sök": 3069,
      "ok": 3070,
      "yng": 3071,
      "torsdag": 3072,
      "brev": 3073,
      "##over": 3074,
      "##14": 3075,
      "nå": 3076,
      "##bel": 3077,
      "##önster": 3078,
      "demokrat": 3079,
      "infl": 3080,
      "##vägen": 3081,
      "##AD": 3082,
      "deltag": 3083,
      "##hopp": 3084,
      "back": 3085,
      "Lake": 3086,
      "##lös": 3087,
      "##rem": 3088,
      "tycks": 3089,
      "Paris": 3090,
      "Vår": 3091,
      "civil": 3092,
      "##eringen": 3093,
      "Bil": 3094,
      "##bord": 3095,
      "effektiv": 3096,
      "Väster": 3097,
      "##add": 3098,
      "fest": 3099,
      "norra": 3100,
      "##grund": 3101,
      "Kanada": 3102,
      "fören": 3103,
      "##skola": 3104,
      "gäst": 3105,
      "##ford": 3106,
      "##cher": 3107,
      "borta": 3108,
      "Si": 3109,
      "ter": 3110,
      "##uck": 3111,
      "järn": 3112,
      "park": 3113,
      "##rom": 3114,
      "motor": 3115,
      "##alla": 3116,
      "vänner": 3117,
      "huset": 3118,
      "Tim": 3119,
      "SVT": 3120,
      "Eller": 3121,
      "blå": 3122,
      "##minst": 3123,
      "förekom": 3124,
      "##slös": 3125,
      "##TT": 3126,
      "upplysningar": 3127,
      "##asse": 3128,
      "buss": 3129,
      "##OL": 3130,
      "##onn": 3131,
      "central": 3132,
      "##12": 3133,
      "matcher": 3134,
      "##unk": 3135,
      "hitta": 3136,
      "##her": 3137,
      "##IF": 3138,
      "kostar": 3139,
      "bev": 3140,
      "miljarder": 3141,
      "däremot": 3142,
      "Te": 3143,
      "Köp": 3144,
      "Eriksson": 3145,
      "rapporter": 3146,
      "nuvarande": 3147,
      "##värt": 3148,
      "##ration": 3149,
      "rut": 3150,
      "Magn": 3151,
      "##splan": 3152,
      "privat": 3153,
      "##arie": 3154,
      "klock": 3155,
      "möjligheter": 3156,
      "grän": 3157,
      "gro": 3158,
      "##ips": 3159,
      "Norge": 3160,
      "Her": 3161,
      "Holm": 3162,
      "övert": 3163,
      "starkt": 3164,
      "kontroll": 3165,
      "läs": 3166,
      "betala": 3167,
      "##rang": 3168,
      "##ND": 3169,
      "makt": 3170,
      "ek": 3171,
      "liknande": 3172,
      "David": 3173,
      "föresl": 3174,
      "anal": 3175,
      "Bra": 3176,
      "Varför": 3177,
      "special": 3178,
      "##hamn": 3179,
      "##olin": 3180,
      "följande": 3181,
      "Is": 3182,
      "kräver": 3183,
      "Hem": 3184,
      "trad": 3185,
      "##verka": 3186,
      "elever": 3187,
      "##fan": 3188,
      "exper": 3189,
      "Tyskland": 3190,
      "##klart": 3191,
      "glad": 3192,
      "##skild": 3193,
      "måndag": 3194,
      "42": 3195,
      "##80": 3196,
      "bilen": 3197,
      "arm": 3198,
      "onsdag": 3199,
      "##17": 3200,
      "redovis": 3201,
      "ingenting": 3202,
      "Åke": 3203,
      "##dels": 3204,
      "sten": 3205,
      "president": 3206,
      "Kal": 3207,
      "Robert": 3208,
      "##brott": 3209,
      "##yrka": 3210,
      "journa": 3211,
      "sjön": 3212,
      "AIK": 3213,
      "kontor": 3214,
      "använda": 3215,
      "2000": 3216,
      "##vens": 3217,
      "Kanske": 3218,
      "port": 3219,
      "##anda": 3220,
      "samtliga": 3221,
      "##film": 3222,
      "grader": 3223,
      "Tom": 3224,
      "dikt": 3225,
      "mång": 3226,
      "amerikansk": 3227,
      "2007": 3228,
      "konstat": 3229,
      "##eringar": 3230,
      "##ffa": 3231,
      "##ley": 3232,
      "Danmark": 3233,
      "##iam": 3234,
      "##erligen": 3235,
      "säsongen": 3236,
      "##ph": 3237,
      "##anken": 3238,
      "service": 3239,
      "höga": 3240,
      "##ax": 3241,
      "##isa": 3242,
      "mär": 3243,
      "##yheter": 3244,
      "Toppen": 3245,
      "årets": 3246,
      "##skad": 3247,
      "bilden": 3248,
      "sydost": 3249,
      "öppna": 3250,
      "ark": 3251,
      "##valt": 3252,
      "förstå": 3253,
      "##akom": 3254,
      "käll": 3255,
      "abs": 3256,
      "san": 3257,
      "Sjö": 3258,
      "##kort": 3259,
      "##ael": 3260,
      "skön": 3261,
      "utbild": 3262,
      "triv": 3263,
      "restaur": 3264,
      "##skont": 3265,
      "##iden": 3266,
      "siff": 3267,
      "Cer": 3268,
      "##16": 3269,
      "anledning": 3270,
      "syss": 3271,
      "begräns": 3272,
      "lämp": 3273,
      "områden": 3274,
      "##erades": 3275,
      "##AM": 3276,
      "at": 3277,
      "##ide": 3278,
      "Kat": 3279,
      "Fredrik": 3280,
      "öppen": 3281,
      "represent": 3282,
      "kopp": 3283,
      "##visning": 3284,
      "vanligt": 3285,
      "Sy": 3286,
      "Thomas": 3287,
      "Hammar": 3288,
      "ekonomi": 3289,
      "bygga": 3290,
      "bär": 3291,
      "vore": 3292,
      "##ämm": 3293,
      "##olisen": 3294,
      "##chefen": 3295,
      "väder": 3296,
      "##lare": 3297,
      "påverk": 3298,
      "lyss": 3299,
      "##minstone": 3300,
      "fullt": 3301,
      "Frankrike": 3302,
      "##iot": 3303,
      "##ädda": 3304,
      "orsak": 3305,
      "Persson": 3306,
      "försöka": 3307,
      "Lennart": 3308,
      "vilja": 3309,
      "##ette": 3310,
      "##slöj": 3311,
      "##uten": 3312,
      "##jöl": 3313,
      "Själ": 3314,
      "knappast": 3315,
      "event": 3316,
      "Mat": 3317,
      "frukt": 3318,
      "ac": 3319,
      "Ty": 3320,
      "##skväll": 3321,
      "##innes": 3322,
      "blod": 3323,
      "börja": 3324,
      "##olt": 3325,
      "##emål": 3326,
      "anmäl": 3327,
      "##jung": 3328,
      "lägga": 3329,
      "Fast": 3330,
      "band": 3331,
      "mamma": 3332,
      "vap": 3333,
      "2006": 3334,
      "37": 3335,
      "byggnad": 3336,
      "låta": 3337,
      "to": 3338,
      "##person": 3339,
      "##stå": 3340,
      "bidrag": 3341,
      "##imm": 3342,
      "##rali": 3343,
      "Mark": 3344,
      "Nyhet": 3345,
      "ledningen": 3346,
      "43": 3347,
      "sträck": 3348,
      "##ägare": 3349,
      "hår": 3350,
      "##spekt": 3351,
      "förbätt": 3352,
      "leder": 3353,
      "popul": 3354,
      "39": 3355,
      "tävling": 3356,
      "skapa": 3357,
      "känna": 3358,
      "skriva": 3359,
      "##ården": 3360,
      "oför": 3361,
      "alternativ": 3362,
      "förhand": 3363,
      "SK": 3364,
      "Matt": 3365,
      "internationella": 3366,
      "##ola": 3367,
      "##ama": 3368,
      "numera": 3369,
      "public": 3370,
      "##istan": 3371,
      "Trots": 3372,
      "##spr": 3373,
      "##len": 3374,
      "##ader": 3375,
      "##duc": 3376,
      "princi": 3377,
      "Stefan": 3378,
      "##ici": 3379,
      "Sovjet": 3380,
      "##RE": 3381,
      "##onom": 3382,
      "hal": 3383,
      "##ativt": 3384,
      "##gick": 3385,
      "därefter": 3386,
      "varm": 3387,
      "somm": 3388,
      "delst": 3389,
      "48": 3390,
      "rök": 3391,
      "text": 3392,
      "##yta": 3393,
      "2005": 3394,
      "samtal": 3395,
      "föreställ": 3396,
      "##partem": 3397,
      "uppmärk": 3398,
      "artik": 3399,
      "Mc": 3400,
      "##naderna": 3401,
      "lö": 3402,
      "känsl": 3403,
      "vatt": 3404,
      "vänster": 3405,
      "##icin": 3406,
      "kommunen": 3407,
      "intervju": 3408,
      "##orden": 3409,
      "lyckades": 3410,
      "##ständigt": 3411,
      "pa": 3412,
      "##yrå": 3413,
      "Holl": 3414,
      "lån": 3415,
      "##ustrali": 3416,
      "flykt": 3417,
      "betydelse": 3418,
      "franska": 3419,
      "dokumentär": 3420,
      "hjälpa": 3421,
      "but": 3422,
      "##ockey": 3423,
      "undan": 3424,
      "Mel": 3425,
      "—": 3426,
      "imp": 3427,
      "muse": 3428,
      "##ringen": 3429,
      "Akt": 3430,
      "##snämn": 3431,
      "th": 3432,
      "aktiv": 3433,
      "tyckte": 3434,
      "fortsätta": 3435,
      "Gar": 3436,
      "##ira": 3437,
      "luft": 3438,
      "##usten": 3439,
      "filmen": 3440,
      "käns": 3441,
      "riksdag": 3442,
      "tåg": 3443,
      "indiv": 3444,
      "##hang": 3445,
      "vars": 3446,
      "Box": 3447,
      "##handel": 3448,
      "tidigt": 3449,
      "Ekon": 3450,
      "##rej": 3451,
      "##elsing": 3452,
      "kul": 3453,
      "idé": 3454,
      "landst": 3455,
      "kvart": 3456,
      "område": 3457,
      "53": 3458,
      "Dom": 3459,
      "##unch": 3460,
      "##sert": 3461,
      "##AS": 3462,
      "årig": 3463,
      "##lagt": 3464,
      "##seende": 3465,
      "##ibli": 3466,
      "ställer": 3467,
      "ditt": 3468,
      "Sal": 3469,
      "vinst": 3470,
      "föräldrar": 3471,
      "##aserie": 3472,
      "Sn": 3473,
      "##lle": 3474,
      "54": 3475,
      "kol": 3476,
      "##ilt": 3477,
      "byg": 3478,
      "dotter": 3479,
      "Olsson": 3480,
      "##reterare": 3481,
      "Ekonyheter": 3482,
      "Karlsson": 3483,
      "närmaste": 3484,
      "vanliga": 3485,
      "##samling": 3486,
      "motsvarande": 3487,
      "kände": 3488,
      "teater": 3489,
      "regel": 3490,
      "##frågan": 3491,
      "sän": 3492,
      "bilar": 3493,
      "Dram": 3494,
      "Några": 3495,
      "##tet": 3496,
      "viktig": 3497,
      "samarbete": 3498,
      "Först": 3499,
      "##still": 3500,
      "utnytt": 3501,
      "konkurr": 3502,
      "400": 3503,
      "##obbet": 3504,
      "Pat": 3505,
      "högst": 3506,
      "cm": 3507,
      "samhället": 3508,
      "##rick": 3509,
      "Tr": 3510,
      "##zonen": 3511,
      "yrkes": 3512,
      "##orer": 3513,
      "riktning": 3514,
      "73": 3515,
      "grön": 3516,
      "Din": 3517,
      "sann": 3518,
      "Över": 3519,
      "Helsing": 3520,
      "drog": 3521,
      "##läggning": 3522,
      "Cerro": 3523,
      "##aden": 3524,
      "ov": 3525,
      "dis": 3526,
      "Soci": 3527,
      "##räde": 3528,
      "##avann": 3529,
      "behövs": 3530,
      "spar": 3531,
      "##san": 3532,
      "elekt": 3533,
      "framtiden": 3534,
      "##jön": 3535,
      "mus": 3536,
      "##program": 3537,
      "##NING": 3538,
      "##fart": 3539,
      "skådespel": 3540,
      "##cep": 3541,
      "Mer": 3542,
      "##IG": 3543,
      "betydligt": 3544,
      "tillräck": 3545,
      "##avorit": 3546,
      "##ekar": 3547,
      "##entligt": 3548,
      "##ies": 3549,
      "2017": 3550,
      "##ith": 3551,
      "##änga": 3552,
      "##olen": 3553,
      "Svenskt": 3554,
      "##edt": 3555,
      "tjej": 3556,
      "##iens": 3557,
      "säm": 3558,
      "##oms": 3559,
      "Dessa": 3560,
      "fantast": 3561,
      "Italien": 3562,
      "inkl": 3563,
      "boll": 3564,
      "överra": 3565,
      "##änsyn": 3566,
      "institut": 3567,
      "##aterna": 3568,
      "##tera": 3569,
      "Jos": 3570,
      "kallas": 3571,
      "##vinn": 3572,
      "##utbildning": 3573,
      "her": 3574,
      "vinn": 3575,
      "Val": 3576,
      "väntar": 3577,
      "ford": 3578,
      "Maria": 3579,
      "mening": 3580,
      "totalt": 3581,
      "åka": 3582,
      "Kn": 3583,
      "lock": 3584,
      "uttal": 3585,
      "kung": 3586,
      "Mal": 3587,
      "##slagen": 3588,
      "organisation": 3589,
      "##skor": 3590,
      "##64": 3591,
      "ställa": 3592,
      "52": 3593,
      "##ustrin": 3594,
      "##rop": 3595,
      "##sträck": 3596,
      "följa": 3597,
      "glöm": 3598,
      "gläd": 3599,
      "##IL": 3600,
      "fina": 3601,
      "Michael": 3602,
      "konstnär": 3603,
      "##anne": 3604,
      "euro": 3605,
      "sjukdom": 3606,
      "plötsligt": 3607,
      "41": 3608,
      "trodde": 3609,
      "Paul": 3610,
      "serie": 3611,
      "Ag": 3612,
      "kombin": 3613,
      "##enden": 3614,
      "känd": 3615,
      "stund": 3616,
      "##ÄR": 3617,
      "anses": 3618,
      "Svensson": 3619,
      "allmänna": 3620,
      "medarbetare": 3621,
      "exempelvis": 3622,
      "nej": 3623,
      "Kultur": 3624,
      "avslöj": 3625,
      "nät": 3626,
      "Person": 3627,
      "fritid": 3628,
      "Liv": 3629,
      "mon": 3630,
      "vanlig": 3631,
      "##ps": 3632,
      "2004": 3633,
      "leva": 3634,
      "tas": 3635,
      "krävs": 3636,
      "Sim": 3637,
      "landets": 3638,
      "sh": 3639,
      "ämn": 3640,
      "##fton": 3641,
      "Cent": 3642,
      "ide": 3643,
      "upplev": 3644,
      "Ulf": 3645,
      "##skade": 3646,
      "EM": 3647,
      "##ensen": 3648,
      "annars": 3649,
      "Just": 3650,
      "##otek": 3651,
      "beror": 3652,
      "bro": 3653,
      "Bert": 3654,
      "välja": 3655,
      "##träd": 3656,
      "##uga": 3657,
      "betrakt": 3658,
      "##IS": 3659,
      "enskil": 3660,
      "lagen": 3661,
      "Je": 3662,
      "radio": 3663,
      "förvalt": 3664,
      "TT": 3665,
      "leda": 3666,
      "##vok": 3667,
      "Cl": 3668,
      "lära": 3669,
      "##isten": 3670,
      "59": 3671,
      "Mats": 3672,
      "##istr": 3673,
      "IF": 3674,
      "##amer": 3675,
      "åtminstone": 3676,
      "glas": 3677,
      "_": 3678,
      "San": 3679,
      "Kj": 3680,
      "##ativa": 3681,
      "behöv": 3682,
      "finnas": 3683,
      "##hets": 3684,
      "vinter": 3685,
      "##äget": 3686,
      "Stig": 3687,
      "skola": 3688,
      "följer": 3689,
      "ledning": 3690,
      "##verksamhet": 3691,
      "Öre": 3692,
      "döm": 3693,
      "komediserie": 3694,
      "Ryss": 3695,
      "litter": 3696,
      "Jam": 3697,
      "lokal": 3698,
      "##arens": 3699,
      "##färd": 3700,
      "villkor": 3701,
      "torde": 3702,
      "förhållande": 3703,
      "ryska": 3704,
      "##kast": 3705,
      "skid": 3706,
      "FN": 3707,
      "od": 3708,
      "absolut": 3709,
      "åtgärder": 3710,
      "visat": 3711,
      "trygg": 3712,
      "58": 3713,
      "pappa": 3714,
      "Ab": 3715,
      "sikt": 3716,
      "Alex": 3717,
      "mak": 3718,
      "prote": 3719,
      "tri": 3720,
      "gymnas": 3721,
      "förmåga": 3722,
      "##out": 3723,
      "ställning": 3724,
      "Cla": 3725,
      "##iter": 3726,
      "rent": 3727,
      "utrikes": 3728,
      "tisdag": 3729,
      "Ra": 3730,
      "hr": 3731,
      "programmet": 3732,
      "administ": 3733,
      "förn": 3734,
      "närmast": 3735,
      "##anten": 3736,
      "höra": 3737,
      "tätbefolkat": 3738,
      "ent": 3739,
      "last": 3740,
      "Ansök": 3741,
      "##ila": 3742,
      "hänsyn": 3743,
      "Huvud": 3744,
      "##befolkad": 3745,
      "46": 3746,
      "City": 3747,
      "##ärer": 3748,
      "alltför": 3749,
      "omedel": 3750,
      "svarar": 3751,
      "ko": 3752,
      "universitet": 3753,
      "säsong": 3754,
      "Vem": 3755,
      "förel": 3756,
      "Daniel": 3757,
      "##sklimat": 3758,
      "Hed": 3759,
      "##byggnad": 3760,
      "uts": 3761,
      "##okus": 3762,
      "##23": 3763,
      "##eman": 3764,
      "##udd": 3765,
      "kö": 3766,
      "intressant": 3767,
      "kunskap": 3768,
      "allra": 3769,
      "löp": 3770,
      "kompl": 3771,
      "##urs": 3772,
      "effekt": 3773,
      "fjärde": 3774,
      "##oni": 3775,
      "Australi": 3776,
      "47": 3777,
      "##entar": 3778,
      "äventyr": 3779,
      "##ställningen": 3780,
      "svåra": 3781,
      "##roller": 3782,
      "östra": 3783,
      "Mad": 3784,
      "##rätten": 3785,
      "läns": 3786,
      "##iddagen": 3787,
      "nivå": 3788,
      "sommaren": 3789,
      "##atis": 3790,
      "##iske": 3791,
      "tradition": 3792,
      "premiär": 3793,
      "##igg": 3794,
      "##serie": 3795,
      "01": 3796,
      "taget": 3797,
      "2003": 3798,
      "Gam": 3799,
      "##vändigt": 3800,
      "##ektive": 3801,
      "idag": 3802,
      "Sve": 3803,
      "##hlm": 3804,
      "##klam": 3805,
      "avs": 3806,
      "Örebro": 3807,
      "vapen": 3808,
      "natten": 3809,
      "givet": 3810,
      "visst": 3811,
      "##anschen": 3812,
      "fö": 3813,
      "obefolkad": 3814,
      "viktiga": 3815,
      "07": 3816,
      "##kr": 3817,
      "modern": 3818,
      "##acka": 3819,
      "Familj": 3820,
      "innehåll": 3821,
      "herr": 3822,
      "kriget": 3823,
      "##igheten": 3824,
      "##rak": 3825,
      "##åda": 3826,
      "Fär": 3827,
      "##urser": 3828,
      "##fred": 3829,
      "##tter": 3830,
      "##spolit": 3831,
      "##ingenjör": 3832,
      "##NG": 3833,
      "skjut": 3834,
      "##nam": 3835,
      "sänd": 3836,
      "##isterna": 3837,
      "Mex": 3838,
      "##lan": 3839,
      "Sw": 3840,
      "##maskin": 3841,
      "erk": 3842,
      "Själv": 3843,
      "##elb": 3844,
      "##ting": 3845,
      "betyg": 3846,
      "funkt": 3847,
      "möter": 3848,
      "växt": 3849,
      "##batt": 3850,
      "tidningen": 3851,
      "78": 3852,
      "räcker": 3853,
      "##ise": 3854,
      "##språk": 3855,
      "Hell": 3856,
      "enbart": 3857,
      "kunder": 3858,
      "##elsens": 3859,
      "gemensam": 3860,
      "##ema": 3861,
      "##sman": 3862,
      "49": 3863,
      "Lid": 3864,
      "##ittén": 3865,
      "Radio": 3866,
      "platser": 3867,
      "##pet": 3868,
      "Wall": 3869,
      "fir": 3870,
      "respektive": 3871,
      "smak": 3872,
      "sociala": 3873,
      "##ink": 3874,
      "##ffe": 3875,
      "##företag": 3876,
      "##juda": 3877,
      "##rare": 3878,
      "Bill": 3879,
      "engag": 3880,
      "##yp": 3881,
      "##28": 3882,
      "bevis": 3883,
      "ansåg": 3884,
      "ledare": 3885,
      "##rika": 3886,
      "##skill": 3887,
      "hust": 3888,
      "99": 3889,
      "##sland": 3890,
      "div": 3891,
      "##ec": 3892,
      "hjärt": 3893,
      "ram": 3894,
      "tit": 3895,
      "förf": 3896,
      "nio": 3897,
      "arbetsuppgifter": 3898,
      "##ines": 3899,
      "##tion": 3900,
      "Bara": 3901,
      "spännande": 3902,
      "Gud": 3903,
      "Bet": 3904,
      "vare": 3905,
      "fas": 3906,
      "godk": 3907,
      "oro": 3908,
      "##rustning": 3909,
      "konf": 3910,
      "Nils": 3911,
      "Tur": 3912,
      "Palm": 3913,
      "distrikt": 3914,
      "Eg": 3915,
      "italien": 3916,
      "fång": 3917,
      "väck": 3918,
      "läsa": 3919,
      "Sport": 3920,
      "Lön": 3921,
      "##arta": 3922,
      "##ikation": 3923,
      "##igur": 3924,
      "150": 3925,
      "##uver": 3926,
      "Ben": 3927,
      "Gen": 3928,
      "##ona": 3929,
      "lägre": 3930,
      "sent": 3931,
      "##rafik": 3932,
      "tapp": 3933,
      "fabrik": 3934,
      "jobbet": 3935,
      "kunskaper": 3936,
      "företaget": 3937,
      "Sthlm": 3938,
      "Fram": 3939,
      "##larna": 3940,
      "##livet": 3941,
      "Kjell": 3942,
      "kommunal": 3943,
      "sym": 3944,
      "##nes": 3945,
      "dyr": 3946,
      "##AND": 3947,
      "sal": 3948,
      "vetenskap": 3949,
      "dags": 3950,
      "##läk": 3951,
      "##betal": 3952,
      "skiv": 3953,
      "##ump": 3954,
      "##acken": 3955,
      "##klubb": 3956,
      "##ILL": 3957,
      "##mor": 3958,
      "##klass": 3959,
      "åker": 3960,
      "##älje": 3961,
      "##elserna": 3962,
      "Red": 3963,
      "##mant": 3964,
      "##uff": 3965,
      "2002": 3966,
      "träning": 3967,
      "visste": 3968,
      "##endet": 3969,
      "Nya": 3970,
      "##skvällen": 3971,
      "Rich": 3972,
      "staten": 3973,
      "Fal": 3974,
      "skratt": 3975,
      "##ruppen": 3976,
      "framåt": 3977,
      "##ottag": 3978,
      "Bel": 3979,
      "nyligen": 3980,
      "befolk": 3981,
      "##irektör": 3982,
      "Do": 3983,
      "börjat": 3984,
      "Ka": 3985,
      "Petter": 3986,
      "64": 3987,
      "miljon": 3988,
      "Djurgården": 3989,
      "satte": 3990,
      "Jön": 3991,
      "##rael": 3992,
      "##blick": 3993,
      "energi": 3994,
      "budget": 3995,
      "##fören": 3996,
      "produktion": 3997,
      "Varje": 3998,
      "##lav": 3999,
      "##za": 4000,
      "Andre": 4001,
      "##frågor": 4002,
      "sammanhang": 4003,
      "88": 4004,
      "leg": 4005,
      "04": 4006,
      "uppf": 4007,
      "At": 4008,
      "##rim": 4009,
      "##etten": 4010,
      "##jänsten": 4011,
      "medvet": 4012,
      "gillar": 4013,
      "övertyg": 4014,
      "##inder": 4015,
      "190": 4016,
      "modell": 4017,
      "##verkan": 4018,
      "loppet": 4019,
      "såsom": 4020,
      "bestämm": 4021,
      "Col": 4022,
      "##ågan": 4023,
      "medlemmar": 4024,
      "##äste": 4025,
      "värd": 4026,
      "punkt": 4027,
      "Ax": 4028,
      "##63": 4029,
      "Otta": 4030,
      "##räk": 4031,
      "##vara": 4032,
      "kvällen": 4033,
      "säl": 4034,
      "beroende": 4035,
      "##fte": 4036,
      "ret": 4037,
      "##ekonom": 4038,
      "##let": 4039,
      "västra": 4040,
      "sål": 4041,
      "läkare": 4042,
      "##riget": 4043,
      "mått": 4044,
      "Jak": 4045,
      "Förs": 4046,
      "##sfull": 4047,
      "2001": 4048,
      "fallet": 4049,
      "lärare": 4050,
      "förord": 4051,
      "##cern": 4052,
      "Ottawa": 4053,
      "hit": 4054,
      "fint": 4055,
      "målet": 4056,
      "Olle": 4057,
      "bilder": 4058,
      "##kommer": 4059,
      "förstår": 4060,
      "publik": 4061,
      "sätter": 4062,
      "ökat": 4063,
      "någonsin": 4064,
      "drar": 4065,
      "invest": 4066,
      "noter": 4067,
      "innehåller": 4068,
      "fungerar": 4069,
      "svag": 4070,
      "##lapp": 4071,
      "##anj": 4072,
      "omöj": 4073,
      "##tälje": 4074,
      "medför": 4075,
      "mod": 4076,
      "försökte": 4077,
      "besked": 4078,
      "avlid": 4079,
      "##erats": 4080,
      "Henrik": 4081,
      "reser": 4082,
      "##smedel": 4083,
      "test": 4084,
      "professor": 4085,
      "grad": 4086,
      "gal": 4087,
      "##skydd": 4088,
      "gift": 4089,
      "67": 4090,
      "dåligt": 4091,
      "##27": 4092,
      "##oreala": 4093,
      "debatt": 4094,
      "takt": 4095,
      "##aner": 4096,
      "klimatzonen": 4097,
      "saknar": 4098,
      "##istisk": 4099,
      "besvär": 4100,
      "utvecklingen": 4101,
      "pot": 4102,
      "medborg": 4103,
      "##bes": 4104,
      "fys": 4105,
      "tyst": 4106,
      "slags": 4107,
      "Eva": 4108,
      "##ministern": 4109,
      "driv": 4110,
      "karri": 4111,
      "##höj": 4112,
      "##skär": 4113,
      "tanke": 4114,
      "fredagen": 4115,
      "##enskomm": 4116,
      "##egr": 4117,
      "cyk": 4118,
      "rol": 4119,
      "terr": 4120,
      "##ställd": 4121,
      "##spir": 4122,
      "rätta": 4123,
      "##kraft": 4124,
      "böcker": 4125,
      "63": 4126,
      "Wil": 4127,
      "57": 4128,
      "initi": 4129,
      "##iat": 4130,
      "##smål": 4131,
      "öka": 4132,
      "snö": 4133,
      "vackra": 4134,
      "##gh": 4135,
      "ökar": 4136,
      "hundra": 4137,
      "ver": 4138,
      "utman": 4139,
      "ökade": 4140,
      "ras": 4141,
      "##ish": 4142,
      "saken": 4143,
      "##gg": 4144,
      "material": 4145,
      "doll": 4146,
      "regl": 4147,
      "##yller": 4148,
      "kärn": 4149,
      "gruppen": 4150,
      "diskuss": 4151,
      "##sked": 4152,
      "##partiet": 4153,
      "Moder": 4154,
      "op": 4155,
      "resor": 4156,
      "omfattande": 4157,
      "Omgiv": 4158,
      "kvalitet": 4159,
      "sock": 4160,
      "bygger": 4161,
      "74": 4162,
      "avst": 4163,
      "närvarande": 4164,
      "##68": 4165,
      "verksamheten": 4166,
      "##itta": 4167,
      "oav": 4168,
      "sub": 4169,
      "nummer": 4170,
      "##arbetet": 4171,
      "##aller": 4172,
      "styck": 4173,
      "region": 4174,
      "mag": 4175,
      "##sats": 4176,
      "##åren": 4177,
      "gäng": 4178,
      "##kontor": 4179,
      "trol": 4180,
      "Social": 4181,
      "nyheter": 4182,
      "kräv": 4183,
      "följd": 4184,
      "##eriet": 4185,
      "##ystemet": 4186,
      "slutade": 4187,
      "oft": 4188,
      "##ologi": 4189,
      "##stedt": 4190,
      "mött": 4191,
      "##landet": 4192,
      "Action": 4193,
      "##gn": 4194,
      "##umb": 4195,
      "grå": 4196,
      "Dal": 4197,
      "co": 4198,
      "Redan": 4199,
      "strid": 4200,
      "regionen": 4201,
      "##itets": 4202,
      "Vin": 4203,
      "##utveck": 4204,
      "##ific": 4205,
      "lämnade": 4206,
      "##fält": 4207,
      "##NA": 4208,
      "Ke": 4209,
      "sydöstra": 4210,
      "##givare": 4211,
      "klockan": 4212,
      "kallade": 4213,
      "##roende": 4214,
      "Omgivningarna": 4215,
      "valet": 4216,
      "täck": 4217,
      "accep": 4218,
      "##oln": 4219,
      "återv": 4220,
      "karakt": 4221,
      "centrum": 4222,
      "$": 4223,
      "äger": 4224,
      "allsven": 4225,
      "slår": 4226,
      "försäljning": 4227,
      "##imer": 4228,
      "Dig": 4229,
      "tillgång": 4230,
      "##sprogram": 4231,
      "##ssan": 4232,
      "##sprung": 4233,
      "##lack": 4234,
      "Inga": 4235,
      "##edag": 4236,
      "##RA": 4237,
      "##29": 4238,
      "##ilver": 4239,
      "Däremot": 4240,
      "##itar": 4241,
      "Fran": 4242,
      "förber": 4243,
      "köra": 4244,
      "##syn": 4245,
      "##äkra": 4246,
      "priser": 4247,
      "Fot": 4248,
      "tax": 4249,
      "##andard": 4250,
      "##förbundet": 4251,
      "ne": 4252,
      "##oper": 4253,
      "speciellt": 4254,
      "förd": 4255,
      "ill": 4256,
      "lägenhet": 4257,
      "Marie": 4258,
      "använder": 4259,
      "Magnus": 4260,
      "förr": 4261,
      "boken": 4262,
      "##une": 4263,
      "Hus": 4264,
      "##ogen": 4265,
      "Jack": 4266,
      "detalj": 4267,
      "##elle": 4268,
      "berättade": 4269,
      "brand": 4270,
      "vita": 4271,
      "Någon": 4272,
      "domstol": 4273,
      "kompet": 4274,
      "röd": 4275,
      "##ansch": 4276,
      "försäkring": 4277,
      "berör": 4278,
      "Kron": 4279,
      "Andra": 4280,
      "##värr": 4281,
      "dina": 4282,
      "##ox": 4283,
      "kass": 4284,
      "Pre": 4285,
      "1999": 4286,
      "West": 4287,
      "ir": 4288,
      "mänsk": 4289,
      "##ign": 4290,
      "##oc": 4291,
      "Gustav": 4292,
      "pröv": 4293,
      "##fot": 4294,
      "##anien": 4295,
      "starka": 4296,
      "uppen": 4297,
      "tvätt": 4298,
      "##svägen": 4299,
      "söndagen": 4300,
      "varav": 4301,
      "##atiska": 4302,
      "##ori": 4303,
      "##TER": 4304,
      "Carlsson": 4305,
      "söka": 4306,
      "anslut": 4307,
      "lyckas": 4308,
      "Li": 4309,
      "##ologiska": 4310,
      "årige": 4311,
      "gett": 4312,
      "##ly": 4313,
      "##lats": 4314,
      "von": 4315,
      "lägger": 4316,
      "##abil": 4317,
      "##lades": 4318,
      "adress": 4319,
      "perfekt": 4320,
      "period": 4321,
      "##abl": 4322,
      "We": 4323,
      "##orlunda": 4324,
      "Skån": 4325,
      "viktigaste": 4326,
      "1998": 4327,
      "Spel": 4328,
      "##stift": 4329,
      "fartyg": 4330,
      "##HL": 4331,
      "##orgonen": 4332,
      "mesta": 4333,
      "##but": 4334,
      "##öta": 4335,
      "illa": 4336,
      "##hjäl": 4337,
      "##cept": 4338,
      "plus": 4339,
      "dyg": 4340,
      "publiken": 4341,
      "##ive": 4342,
      "används": 4343,
      "kritik": 4344,
      "Ur": 4345,
      "##orp": 4346,
      "inträff": 4347,
      "utgång": 4348,
      "favorit": 4349,
      "medicin": 4350,
      "förhållanden": 4351,
      "avgörande": 4352,
      "Charl": 4353,
      "partiet": 4354,
      "Bred": 4355,
      "pers": 4356,
      "knappt": 4357,
      "undant": 4358,
      "grat": 4359,
      "släkt": 4360,
      "ungdomar": 4361,
      "##hel": 4362,
      "begär": 4363,
      "1997": 4364,
      "läget": 4365,
      "tillräckligt": 4366,
      "vunnit": 4367,
      "princip": 4368,
      "server": 4369,
      "direktör": 4370,
      "##itekt": 4371,
      "räkna": 4372,
      "mörd": 4373,
      "lämnar": 4374,
      "##partementet": 4375,
      "opp": 4376,
      "##ionerna": 4377,
      "ot": 4378,
      "kok": 4379,
      "defin": 4380,
      "##IT": 4381,
      "förvänt": 4382,
      "inrikt": 4383,
      "Arne": 4384,
      "tillstånd": 4385,
      "reklam": 4386,
      "torsdagen": 4387,
      "Amer": 4388,
      "##ate": 4389,
      "annon": 4390,
      "svarade": 4391,
      "Mil": 4392,
      "hösten": 4393,
      "välj": 4394,
      "måndagen": 4395,
      "##iff": 4396,
      "landsting": 4397,
      "ass": 4398,
      "##ura": 4399,
      "Mitt": 4400,
      "befatt": 4401,
      "moderna": 4402,
      "Dahl": 4403,
      "##ungen": 4404,
      "delstaten": 4405,
      "fotograf": 4406,
      "sällan": 4407,
      "##produkt": 4408,
      "svara": 4409,
      "Stora": 4410,
      "papper": 4411,
      "uppskatt": 4412,
      "1990": 4413,
      "Volv": 4414,
      "Kina": 4415,
      "##ng": 4416,
      "##yrelsen": 4417,
      "behandling": 4418,
      "##CH": 4419,
      "LO": 4420,
      "sort": 4421,
      "omfattar": 4422,
      "##mannen": 4423,
      "hälften": 4424,
      "##stans": 4425,
      "Telefon": 4426,
      "##malm": 4427,
      "löne": 4428,
      "##skning": 4429,
      "98": 4430,
      "mitten": 4431,
      "##rimin": 4432,
      "##onden": 4433,
      "##sdel": 4434,
      "83": 4435,
      "lyckats": 4436,
      "##ement": 4437,
      "##ES": 4438,
      "sälja": 4439,
      "68": 4440,
      "förrän": 4441,
      "##iljö": 4442,
      "räknar": 4443,
      "77": 4444,
      "arg": 4445,
      "serien": 4446,
      "kille": 4447,
      "##iteter": 4448,
      "trött": 4449,
      "tvek": 4450,
      "God": 4451,
      "alk": 4452,
      "##anger": 4453,
      "vuxna": 4454,
      "tisdagen": 4455,
      "##67": 4456,
      "förlust": 4457,
      "inkomst": 4458,
      "##lim": 4459,
      "brist": 4460,
      "rejäl": 4461,
      "djup": 4462,
      "##rof": 4463,
      "priset": 4464,
      "utmär": 4465,
      "Medel": 4466,
      "anst": 4467,
      "##rot": 4468,
      "domin": 4469,
      "ordning": 4470,
      "84": 4471,
      "##önst": 4472,
      "rull": 4473,
      "vattnet": 4474,
      "##platsen": 4475,
      "skrivit": 4476,
      "erbjuder": 4477,
      "AR": 4478,
      "##ingarna": 4479,
      "beskriv": 4480,
      "##uri": 4481,
      "stig": 4482,
      "##anti": 4483,
      "##frika": 4484,
      "kött": 4485,
      "Far": 4486,
      "600": 4487,
      "onsdagen": 4488,
      "kyrka": 4489,
      "lördagen": 4490,
      "##ED": 4491,
      "tysk": 4492,
      "Hela": 4493,
      "87": 4494,
      "##amrat": 4495,
      "Ger": 4496,
      "individ": 4497,
      "##egång": 4498,
      "Wal": 4499,
      "Don": 4500,
      "##skrifter": 4501,
      "##ctor": 4502,
      "##vän": 4503,
      "resten": 4504,
      "Lag": 4505,
      "##weiz": 4506,
      "misstän": 4507,
      "##nack": 4508,
      "Solna": 4509,
      "##arken": 4510,
      "roligt": 4511,
      "##dens": 4512,
      "kostnad": 4513,
      "##makt": 4514,
      "major": 4515,
      "Po": 4516,
      "strax": 4517,
      "##ight": 4518,
      "militär": 4519,
      "##yrkan": 4520,
      "regler": 4521,
      "##allt": 4522,
      "stäng": 4523,
      "huvudet": 4524,
      "initiativ": 4525,
      "##omma": 4526,
      "##yrån": 4527,
      "ak": 4528,
      "Mycket": 4529,
      "höjd": 4530,
      "tekniska": 4531,
      "Phil": 4532,
      "##du": 4533,
      "##hög": 4534,
      "pengarna": 4535,
      "89": 4536,
      "##ION": 4537,
      "fria": 4538,
      "kroppen": 4539,
      "##åndet": 4540,
      "##resa": 4541,
      "##amb": 4542,
      "Go": 4543,
      "pj": 4544,
      "Gösta": 4545,
      "tunn": 4546,
      "##apport": 4547,
      "studer": 4548,
      "Ryssland": 4549,
      "ledam": 4550,
      "##uel": 4551,
      "Int": 4552,
      "Kont": 4553,
      "kand": 4554,
      "mord": 4555,
      "Vidare": 4556,
      "ansikt": 4557,
      "hyll": 4558,
      "62": 4559,
      "prom": 4560,
      "lo": 4561,
      "ges": 4562,
      "Europ": 4563,
      "sannol": 4564,
      "inf": 4565,
      "Låt": 4566,
      "författare": 4567,
      "##ienter": 4568,
      "Leif": 4569,
      "ligga": 4570,
      "94": 4571,
      "trevlig": 4572,
      "föred": 4573,
      "forskning": 4574,
      "överenskomm": 4575,
      "##ställa": 4576,
      "någonting": 4577,
      "väljer": 4578,
      "ursprung": 4579,
      "politiker": 4580,
      "Ström": 4581,
      "##ér": 4582,
      "56": 4583,
      "##sättningen": 4584,
      "Eftersom": 4585,
      "namnet": 4586,
      "påp": 4587,
      "##stjänst": 4588,
      "fortsatte": 4589,
      "flicka": 4590,
      "överl": 4591,
      "tex": 4592,
      "final": 4593,
      "##ony": 4594,
      "rygg": 4595,
      "##jöd": 4596,
      "Ki": 4597,
      "93": 4598,
      "invand": 4599,
      "Con": 4600,
      "chansen": 4601,
      "rän": 4602,
      "Natur": 4603,
      "skott": 4604,
      "1994": 4605,
      "##inen": 4606,
      "Norrköping": 4607,
      "ledande": 4608,
      "närings": 4609,
      "Mor": 4610,
      "VI": 4611,
      "##anskt": 4612,
      "beröm": 4613,
      "temper": 4614,
      "spets": 4615,
      "omedelbart": 4616,
      "##ningsk": 4617,
      "timme": 4618,
      "ident": 4619,
      "tänkte": 4620,
      "delvis": 4621,
      "ledde": 4622,
      "Hag": 4623,
      "föll": 4624,
      "produkter": 4625,
      "vänta": 4626,
      "Richard": 4627,
      "berätta": 4628,
      "##innan": 4629,
      "lokaler": 4630,
      "##röna": 4631,
      "##tog": 4632,
      "##ca": 4633,
      "##uta": 4634,
      "tjänsten": 4635,
      "##edd": 4636,
      "##11": 4637,
      "Ansökan": 4638,
      "Intern": 4639,
      "##musik": 4640,
      "avlidit": 4641,
      "avsnitt": 4642,
      "09": 4643,
      "##ho": 4644,
      "skil": 4645,
      "utsatt": 4646,
      "Bertil": 4647,
      "##resenter": 4648,
      "##öken": 4649,
      "1996": 4650,
      "##lia": 4651,
      "marknaden": 4652,
      "skrift": 4653,
      "dramaserie": 4654,
      "användas": 4655,
      "##agnar": 4656,
      "kända": 4657,
      "vak": 4658,
      "##öte": 4659,
      "##orget": 4660,
      "Håk": 4661,
      "kön": 4662,
      "Bygg": 4663,
      "##arlam": 4664,
      "hänt": 4665,
      "72": 4666,
      "Vet": 4667,
      "förbi": 4668,
      "lugn": 4669,
      "äm": 4670,
      "##wood": 4671,
      "trädgård": 4672,
      "Gra": 4673,
      "plock": 4674,
      "kallt": 4675,
      "funder": 4676,
      "##kan": 4677,
      "pågår": 4678,
      "skyld": 4679,
      "2018": 4680,
      "ång": 4681,
      "##atta": 4682,
      "spelat": 4683,
      "OO": 4684,
      "människa": 4685,
      "fi": 4686,
      "yngre": 4687,
      "##svall": 4688,
      "ringa": 4689,
      "ljud": 4690,
      "##erier": 4691,
      "sällskap": 4692,
      "jobbar": 4693,
      "##kadem": 4694,
      "sämre": 4695,
      "situation": 4696,
      "Bok": 4697,
      "##quist": 4698,
      "givetvis": 4699,
      "##amn": 4700,
      "dollar": 4701,
      "##ordes": 4702,
      "##älla": 4703,
      "##rapp": 4704,
      "förmån": 4705,
      "##peiska": 4706,
      "69": 4707,
      "fritt": 4708,
      "Thriller": 4709,
      "##ones": 4710,
      "##RO": 4711,
      "sitta": 4712,
      "lokala": 4713,
      "##skåd": 4714,
      "##öld": 4715,
      "##lever": 4716,
      "##ionens": 4717,
      "anfall": 4718,
      "ordin": 4719,
      "##histor": 4720,
      "##US": 4721,
      "förklarade": 4722,
      "Mosk": 4723,
      "Inom": 4724,
      "visserligen": 4725,
      "intresserad": 4726,
      "1995": 4727,
      "ekonomisk": 4728,
      "Birg": 4729,
      "kund": 4730,
      "##fört": 4731,
      "riksdagen": 4732,
      "str": 4733,
      "##smin": 4734,
      "Vas": 4735,
      "##idrag": 4736,
      "upprätt": 4737,
      "relig": 4738,
      "bakgrund": 4739,
      "kläder": 4740,
      "Ung": 4741,
      "##erings": 4742,
      "landslag": 4743,
      "##sholm": 4744,
      "ban": 4745,
      "##imul": 4746,
      "James": 4747,
      "II": 4748,
      "##onde": 4749,
      "Pe": 4750,
      "##ritann": 4751,
      "passar": 4752,
      "##69": 4753,
      "##läggningar": 4754,
      "tolv": 4755,
      "tomt": 4756,
      "hind": 4757,
      "oer": 4758,
      "##ärare": 4759,
      "##bladet": 4760,
      "Bern": 4761,
      "intill": 4762,
      "möte": 4763,
      "##lyck": 4764,
      "Storb": 4765,
      "älskar": 4766,
      "##redningen": 4767,
      "Lasse": 4768,
      "##träff": 4769,
      "träffa": 4770,
      "strå": 4771,
      "intens": 4772,
      "grann": 4773,
      "Västerås": 4774,
      "anpass": 4775,
      "##försälj": 4776,
      "dagarna": 4777,
      "korre": 4778,
      "Od": 4779,
      "##odde": 4780,
      "##omp": 4781,
      "51": 4782,
      "##världen": 4783,
      "pen": 4784,
      "visas": 4785,
      "William": 4786,
      "##tekn": 4787,
      "tänkt": 4788,
      "##ongen": 4789,
      "des": 4790,
      "nyhet": 4791,
      "##ucc": 4792,
      "gi": 4793,
      "lämn": 4794,
      "yt": 4795,
      "kontrakt": 4796,
      "svarta": 4797,
      "teknik": 4798,
      "##ney": 4799,
      "erbjud": 4800,
      "Bör": 4801,
      "Sara": 4802,
      "botten": 4803,
      "##alle": 4804,
      "Port": 4805,
      "800": 4806,
      "##dahl": 4807,
      "##isar": 4808,
      "Stat": 4809,
      "##sent": 4810,
      "semester": 4811,
      "ända": 4812,
      "##tré": 4813,
      "nödvänd": 4814,
      "af": 4815,
      "dvs": 4816,
      "##cken": 4817,
      "##leken": 4818,
      "Pri": 4819,
      "eld": 4820,
      "##lir": 4821,
      "vardag": 4822,
      "frisk": 4823,
      "ort": 4824,
      "förklarar": 4825,
      "lättare": 4826,
      "norska": 4827,
      "göras": 4828,
      "##räffande": 4829,
      "advok": 4830,
      "skild": 4831,
      "Håkan": 4832,
      "1980": 4833,
      "jobba": 4834,
      "Hj": 4835,
      "behöva": 4836,
      "rädda": 4837,
      "##50": 4838,
      "sold": 4839,
      "##delser": 4840,
      "prata": 4841,
      "lant": 4842,
      "##itys": 4843,
      "##äsen": 4844,
      "aktie": 4845,
      "kg": 4846,
      "uppehåll": 4847,
      "Mika": 4848,
      "aktier": 4849,
      "särskild": 4850,
      "ständigt": 4851,
      "stjärn": 4852,
      "Flera": 4853,
      "tillämp": 4854,
      "hushåll": 4855,
      "demonst": 4856,
      "tolk": 4857,
      "120": 4858,
      "##pråk": 4859,
      "kil": 4860,
      "statliga": 4861,
      "Sture": 4862,
      "##stiden": 4863,
      "Köpen": 4864,
      "brittiska": 4865,
      "##dal": 4866,
      "konsek": 4867,
      "studier": 4868,
      "##teckning": 4869,
      "Ba": 4870,
      "##ations": 4871,
      "vik": 4872,
      "##flytt": 4873,
      "tillträ": 4874,
      "kraftigt": 4875,
      "Väx": 4876,
      "regiss": 4877,
      "Ska": 4878,
      "##ile": 4879,
      "79": 4880,
      "##set": 4881,
      "Storbritann": 4882,
      "minns": 4883,
      "##ationerna": 4884,
      "##skat": 4885,
      "##usch": 4886,
      "folket": 4887,
      "82": 4888,
      "##gl": 4889,
      "förekommer": 4890,
      "överv": 4891,
      "Lena": 4892,
      "gällande": 4893,
      "Ca": 4894,
      "##ppet": 4895,
      "troligen": 4896,
      "\\": 4897,
      "mjöl": 4898,
      "##EM": 4899,
      "lunch": 4900,
      "halvt": 4901,
      "##kra": 4902,
      "alkoh": 4903,
      "##änning": 4904,
      "Hammarby": 4905,
      "mej": 4906,
      "Rob": 4907,
      "Reger": 4908,
      "Tomm": 4909,
      "tjänster": 4910,
      "##mästare": 4911,
      "allm": 4912,
      "##vall": 4913,
      "vinner": 4914,
      "sovrum": 4915,
      "##äp": 4916,
      "##gav": 4917,
      "##sidan": 4918,
      "##xt": 4919,
      "klarar": 4920,
      "##stag": 4921,
      "##röst": 4922,
      "Karin": 4923,
      "##höll": 4924,
      "gransk": 4925,
      "anklag": 4926,
      "varier": 4927,
      "##osa": 4928,
      "spring": 4929,
      "räknas": 4930,
      "svenskt": 4931,
      "##otta": 4932,
      "syssels": 4933,
      "prop": 4934,
      "Gre": 4935,
      "världsk": 4936,
      "1970": 4937,
      "«": 4938,
      "representer": 4939,
      "##växt": 4940,
      "offici": 4941,
      "##edom": 4942,
      "##område": 4943,
      "Verk": 4944,
      "smör": 4945,
      "##atet": 4946,
      "utnyttj": 4947,
      "sammant": 4948,
      "##laget": 4949,
      "rekord": 4950,
      "Ör": 4951,
      "##marna": 4952,
      "##eger": 4953,
      "förhandling": 4954,
      "kallar": 4955,
      "ingenjör": 4956,
      "kvinnan": 4957,
      "utsträck": 4958,
      "##dex": 4959,
      "läser": 4960,
      "drift": 4961,
      "hittar": 4962,
      "mob": 4963,
      "dog": 4964,
      "Utan": 4965,
      "ökad": 4966,
      "tillfälle": 4967,
      "fyr": 4968,
      "##hört": 4969,
      "Jac": 4970,
      "Mål": 4971,
      "##tligen": 4972,
      "Fort": 4973,
      "kli": 4974,
      "##ial": 4975,
      "rim": 4976,
      "=": 4977,
      "ström": 4978,
      "##sförbund": 4979,
      "##erien": 4980,
      "hov": 4981,
      "registr": 4982,
      "motsvar": 4983,
      "##ini": 4984,
      "Bras": 4985,
      "utrym": 4986,
      "##rottning": 4987,
      "Lou": 4988,
      "Östers": 4989,
      "##urn": 4990,
      "turn": 4991,
      "##släpp": 4992,
      "##varo": 4993,
      "ork": 4994,
      "Lill": 4995,
      "##områden": 4996,
      "främsta": 4997,
      "##bol": 4998,
      "##river": 4999,
      "##måga": 5000,
      "humor": 5001,
      "lät": 5002,
      "behåll": 5003,
      "borger": 5004,
      "##ningsb": 5005,
      "fängelse": 5006,
      "bibli": 5007,
      "kem": 5008,
      "anl": 5009,
      "grupper": 5010,
      "##burg": 5011,
      "åkte": 5012,
      "enskilda": 5013,
      "lösa": 5014,
      "##punkter": 5015,
      "intressen": 5016,
      "Arbetet": 5017,
      "##åningom": 5018,
      "dy": 5019,
      "körde": 5020,
      "överens": 5021,
      "kors": 5022,
      "bestämt": 5023,
      "97": 5024,
      "Text": 5025,
      "jämn": 5026,
      "##skraft": 5027,
      "skillnad": 5028,
      "##osition": 5029,
      "##ID": 5030,
      "skull": 5031,
      "efterm": 5032,
      "Lok": 5033,
      "##viken": 5034,
      "##då": 5035,
      "##gått": 5036,
      "##intress": 5037,
      "Kvinn": 5038,
      "##uts": 5039,
      "##ässigt": 5040,
      "förmod": 5041,
      "arbetsmark": 5042,
      "produc": 5043,
      "Jap": 5044,
      "flytta": 5045,
      "enkel": 5046,
      "ses": 5047,
      "Jonas": 5048,
      "fokus": 5049,
      "undantag": 5050,
      "utländska": 5051,
      "sjukvård": 5052,
      "Angel": 5053,
      "##edit": 5054,
      "svenskar": 5055,
      "segern": 5056,
      "mörk": 5057,
      "erhåll": 5058,
      "bru": 5059,
      "##arb": 5060,
      "1993": 5061,
      "gat": 5062,
      "situationen": 5063,
      "86": 5064,
      "reda": 5065,
      "##jor": 5066,
      "prest": 5067,
      "##atiskt": 5068,
      "otr": 5069,
      "##nades": 5070,
      "66": 5071,
      "##OT": 5072,
      "tvingas": 5073,
      "Väder": 5074,
      "##ställda": 5075,
      "inner": 5076,
      "varken": 5077,
      "##kel": 5078,
      "romant": 5079,
      "##visa": 5080,
      "##emedel": 5081,
      "##agg": 5082,
      "##strand": 5083,
      "funktion": 5084,
      "Hennes": 5085,
      "##smat": 5086,
      "##rest": 5087,
      "tak": 5088,
      "Park": 5089,
      "##kall": 5090,
      "##rats": 5091,
      "dubbel": 5092,
      "disp": 5093,
      "##andin": 5094,
      "##rateg": 5095,
      "super": 5096,
      "##ostäder": 5097,
      "##radion": 5098,
      "##rinnings": 5099,
      "jordbruksmark": 5100,
      "stanna": 5101,
      "Berlin": 5102,
      "fly": 5103,
      "finna": 5104,
      "##akomedi": 5105,
      "##sspel": 5106,
      "dator": 5107,
      "perioden": 5108,
      "ankn": 5109,
      "##ranger": 5110,
      "##arv": 5111,
      "##medel": 5112,
      "lösning": 5113,
      "##spektiv": 5114,
      "##sområdet": 5115,
      "Borg": 5116,
      "##årig": 5117,
      "##ättning": 5118,
      "åringen": 5119,
      "©": 5120,
      "Ob": 5121,
      "##lor": 5122,
      "Kod": 5123,
      "Bes": 5124,
      "klipp": 5125,
      "##ytande": 5126,
      "hjälper": 5127,
      "prä": 5128,
      "ifråg": 5129,
      "slott": 5130,
      "känsla": 5131,
      "relativt": 5132,
      "våren": 5133,
      "##aktion": 5134,
      "Post": 5135,
      "##skost": 5136,
      "andel": 5137,
      "##istik": 5138,
      "##ordning": 5139,
      "Något": 5140,
      "Lång": 5141,
      "##strukt": 5142,
      "Ast": 5143,
      "Polisen": 5144,
      "villa": 5145,
      "Ljung": 5146,
      "Södertälje": 5147,
      "kontroller": 5148,
      "danska": 5149,
      "bilj": 5150,
      "platsen": 5151,
      "tränare": 5152,
      "##isen": 5153,
      "småningom": 5154,
      "resultatet": 5155,
      "skilj": 5156,
      "##ieb": 5157,
      "##35": 5158,
      "##oster": 5159,
      "Gäv": 5160,
      "##former": 5161,
      "Tommy": 5162,
      "Pet": 5163,
      "utredningen": 5164,
      "Spanien": 5165,
      "##mande": 5166,
      "kapit": 5167,
      "Ant": 5168,
      "karaktär": 5169,
      "värme": 5170,
      "##båt": 5171,
      "kyrkan": 5172,
      "##handlingar": 5173,
      "självständigt": 5174,
      "lt": 5175,
      "ap": 5176,
      "tusen": 5177,
      "hände": 5178,
      "handlingar": 5179,
      "##ledningen": 5180,
      "jämfört": 5181,
      "Mikael": 5182,
      "##uft": 5183,
      "##ryss": 5184,
      "Bu": 5185,
      "105": 5186,
      "reserv": 5187,
      "Sj": 5188,
      "##mäkt": 5189,
      "väntas": 5190,
      "Pettersson": 5191,
      "pian": 5192,
      "ref": 5193,
      "tydligt": 5194,
      "tillgäng": 5195,
      "og": 5196,
      "vacker": 5197,
      "Ir": 5198,
      "##atisk": 5199,
      "stol": 5200,
      "92": 5201,
      "##ityserie": 5202,
      "ager": 5203,
      "vers": 5204,
      "Visst": 5205,
      "##kong": 5206,
      "##ansvar": 5207,
      "96": 5208,
      "##45": 5209,
      "hästar": 5210,
      "Köpenhamn": 5211,
      "erfaren": 5212,
      "##ästaren": 5213,
      "##RÄ": 5214,
      "##cia": 5215,
      "slipp": 5216,
      "Rätt": 5217,
      "##sålder": 5218,
      "##vi": 5219,
      "##ryt": 5220,
      "##ene": 5221,
      "annorlunda": 5222,
      "titta": 5223,
      "misslyck": 5224,
      "##anser": 5225,
      "##rummet": 5226,
      "##ih": 5227,
      "Sön": 5228,
      "förening": 5229,
      "skul": 5230,
      "proc": 5231,
      "250": 5232,
      "ombord": 5233,
      "##llen": 5234,
      "##rump": 5235,
      "nöjd": 5236,
      "##stin": 5237,
      "utb": 5238,
      "skador": 5239,
      "anställning": 5240,
      "antag": 5241,
      "##ane": 5242,
      "gräns": 5243,
      "utveckla": 5244,
      "##tiden": 5245,
      "kommuner": 5246,
      "process": 5247,
      "Första": 5248,
      "##ward": 5249,
      "kurs": 5250,
      "spelet": 5251,
      "kompetens": 5252,
      "normalt": 5253,
      "##stället": 5254,
      "Därefter": 5255,
      "Direkt": 5256,
      "700": 5257,
      "##rona": 5258,
      "##änderna": 5259,
      "##ges": 5260,
      "export": 5261,
      "##vika": 5262,
      "insatser": 5263,
      "national": 5264,
      "oftast": 5265,
      "Volvo": 5266,
      "lager": 5267,
      "##aljer": 5268,
      "stri": 5269,
      "Osc": 5270,
      "synner": 5271,
      "Da": 5272,
      "äta": 5273,
      "##nal": 5274,
      "talade": 5275,
      "##rades": 5276,
      "hämt": 5277,
      "##adens": 5278,
      "förlorade": 5279,
      "sörj": 5280,
      "##ändsk": 5281,
      "##ya": 5282,
      "##fest": 5283,
      "##yggen": 5284,
      "##jul": 5285,
      "standard": 5286,
      "Moskva": 5287,
      "väd": 5288,
      "Närmare": 5289,
      "rock": 5290,
      "frihet": 5291,
      "kommande": 5292,
      "##ligaste": 5293,
      "##unde": 5294,
      "##ekreterare": 5295,
      "utredning": 5296,
      "SA": 5297,
      "##äger": 5298,
      "bord": 5299,
      "gränsen": 5300,
      "##risk": 5301,
      "Sig": 5302,
      "##örerna": 5303,
      "##yser": 5304,
      "tings": 5305,
      "respekt": 5306,
      "Mån": 5307,
      "91": 5308,
      "spelas": 5309,
      "##ätter": 5310,
      "##spelet": 5311,
      "##andinav": 5312,
      "städer": 5313,
      "restaurang": 5314,
      "kalla": 5315,
      "##piskt": 5316,
      "kommunala": 5317,
      "Uppl": 5318,
      "##ledes": 5319,
      "sönder": 5320,
      "aktuella": 5321,
      "Axel": 5322,
      "Ker": 5323,
      "log": 5324,
      "åtal": 5325,
      "##ikationer": 5326,
      "resurser": 5327,
      "ti": 5328,
      "##ändes": 5329,
      "##ence": 5330,
      "##cka": 5331,
      "förvär": 5332,
      "dålig": 5333,
      "fjäll": 5334,
      "Ho": 5335,
      "##undersök": 5336,
      "jorden": 5337,
      "förslaget": 5338,
      "Gävle": 5339,
      "##förening": 5340,
      "lagt": 5341,
      "motiver": 5342,
      "Film": 5343,
      "Id": 5344,
      "Gamla": 5345,
      "Tidigare": 5346,
      "Rolf": 5347,
      "##jörn": 5348,
      "klubben": 5349,
      "##vill": 5350,
      "##beth": 5351,
      "Värld": 5352,
      "Me": 5353,
      "autom": 5354,
      "häng": 5355,
      "basen": 5356,
      "##handa": 5357,
      "tips": 5358,
      "##snämnden": 5359,
      "banan": 5360,
      "##industrin": 5361,
      "tand": 5362,
      "bolaget": 5363,
      "känt": 5364,
      "##KT": 5365,
      "rest": 5366,
      "inköp": 5367,
      "journalist": 5368,
      "Storbritannien": 5369,
      "neg": 5370,
      "kart": 5371,
      "privata": 5372,
      "Välkommen": 5373,
      "ordinarie": 5374,
      "sökande": 5375,
      "linje": 5376,
      "##skande": 5377,
      "gratis": 5378,
      "Blom": 5379,
      "AN": 5380,
      "thriller": 5381,
      "parlam": 5382,
      "##mak": 5383,
      "förstör": 5384,
      "##ätta": 5385,
      "Bri": 5386,
      "arbetslös": 5387,
      "Margar": 5388,
      "kollektiv": 5389,
      "##räft": 5390,
      "intell": 5391,
      "com": 5392,
      "teknisk": 5393,
      "koncent": 5394,
      "stick": 5395,
      "avse": 5396,
      "fält": 5397,
      "stimul": 5398,
      "##central": 5399,
      "hast": 5400,
      "opt": 5401,
      "##utbild": 5402,
      "middag": 5403,
      "##iftet": 5404,
      "##fullt": 5405,
      "järnväg": 5406,
      "kines": 5407,
      "##gjorde": 5408,
      "Victor": 5409,
      "levande": 5410,
      "politisk": 5411,
      "##komna": 5412,
      "sim": 5413,
      "##fallet": 5414,
      "##ington": 5415,
      "1992": 5416,
      "framgångs": 5417,
      "mid": 5418,
      "städ": 5419,
      "Både": 5420,
      "fåg": 5421,
      "etabl": 5422,
      "##tering": 5423,
      "##entals": 5424,
      "##iko": 5425,
      "Södra": 5426,
      "kamrat": 5427,
      "exakt": 5428,
      "##ino": 5429,
      "##löst": 5430,
      "snarast": 5431,
      "##hall": 5432,
      "ögonblick": 5433,
      "report": 5434,
      "aukt": 5435,
      "##mot": 5436,
      "befinner": 5437,
      "hört": 5438,
      "inre": 5439,
      "etc": 5440,
      "plast": 5441,
      "##irig": 5442,
      "medverk": 5443,
      "offentliga": 5444,
      "rekommen": 5445,
      "06": 5446,
      "##ugo": 5447,
      "världs": 5448,
      "##sköter": 5449,
      "##fulla": 5450,
      "sluta": 5451,
      "Tot": 5452,
      "##ssons": 5453,
      "##SU": 5454,
      "##klara": 5455,
      "##göring": 5456,
      "marknadsför": 5457,
      "administrat": 5458,
      "Ga": 5459,
      "##gas": 5460,
      "filmer": 5461,
      "##98": 5462,
      "utsträckning": 5463,
      "Mannen": 5464,
      "##alserie": 5465,
      "verket": 5466,
      "1991": 5467,
      "karriär": 5468,
      "general": 5469,
      "tydligen": 5470,
      "dukt": 5471,
      "raka": 5472,
      "z": 5473,
      "kapital": 5474,
      "minska": 5475,
      "##ros": 5476,
      "hemib": 5477,
      "##råket": 5478,
      "Äl": 5479,
      "order": 5480,
      "##vand": 5481,
      "finalen": 5482,
      "hemiboreala": 5483,
      "Marc": 5484,
      "snygg": 5485,
      "Kr": 5486,
      "##ländska": 5487,
      "##eden": 5488,
      "##bolag": 5489,
      "##lie": 5490,
      "##gjort": 5491,
      "bjuder": 5492,
      "startade": 5493,
      "storlek": 5494,
      "Jer": 5495,
      "##estånd": 5496,
      "Ele": 5497,
      "76": 5498,
      "##gent": 5499,
      "##iment": 5500,
      "sån": 5501,
      "bos": 5502,
      "frågar": 5503,
      "##stod": 5504,
      "##eth": 5505,
      "IFK": 5506,
      "##ico": 5507,
      "kvinnliga": 5508,
      "ost": 5509,
      "##kör": 5510,
      "vakt": 5511,
      "personliga": 5512,
      "kvalific": 5513,
      "##atik": 5514,
      "Sof": 5515,
      "##namn": 5516,
      "##räv": 5517,
      "##ili": 5518,
      "##unna": 5519,
      "Lule": 5520,
      "inspir": 5521,
      "71": 5522,
      "lämnat": 5523,
      "samling": 5524,
      "formen": 5525,
      "allmänhet": 5526,
      "Skog": 5527,
      "sköt": 5528,
      "##ben": 5529,
      "##männen": 5530,
      "vari": 5531,
      "Helsingfors": 5532,
      "KV": 5533,
      "Norrland": 5534,
      "gård": 5535,
      "Fem": 5536,
      "krist": 5537,
      "arranger": 5538,
      "##huvud": 5539,
      "##skrivning": 5540,
      "jakt": 5541,
      "##leva": 5542,
      "femte": 5543,
      "##enta": 5544,
      "underst": 5545,
      "##srätt": 5546,
      "##ävling": 5547,
      "inl": 5548,
      "Konst": 5549,
      "församling": 5550,
      "##gra": 5551,
      "hörde": 5552,
      "lugnt": 5553,
      "##ismen": 5554,
      "frågade": 5555,
      "##tryck": 5556,
      "litteratur": 5557,
      "Nik": 5558,
      "Mag": 5559,
      "##ynn": 5560,
      "Got": 5561,
      "denne": 5562,
      "hyres": 5563,
      "försikt": 5564,
      "##säg": 5565,
      "##egor": 5566,
      "undersökning": 5567,
      "ish": 5568,
      "helg": 5569,
      "ambass": 5570,
      "Mellan": 5571,
      "##bor": 5572,
      "##vision": 5573,
      "studen": 5574,
      "lj": 5575,
      "nödvändigt": 5576,
      "##ugh": 5577,
      "61": 5578,
      "delta": 5579,
      "utgår": 5580,
      "##CO": 5581,
      "Lik": 5582,
      "positiv": 5583,
      "beräknas": 5584,
      "##åp": 5585,
      "##delsen": 5586,
      "Max": 5587,
      "tillgod": 5588,
      "Island": 5589,
      "tecken": 5590,
      "förtroende": 5591,
      "Savann": 5592,
      "##bum": 5593,
      "Stud": 5594,
      "vardags": 5595,
      "Prin": 5596,
      "##riska": 5597,
      "vand": 5598,
      "förutsättningar": 5599,
      "##äna": 5600,
      "Dam": 5601,
      "la": 5602,
      "##les": 5603,
      "Arbets": 5604,
      "Savannklimat": 5605,
      "präg": 5606,
      "utsikt": 5607,
      "FÖR": 5608,
      "flickor": 5609,
      "glädje": 5610,
      "##feld": 5611,
      "moln": 5612,
      "scenen": 5613,
      "##astrof": 5614,
      "##ruv": 5615,
      "realityserie": 5616,
      "bekant": 5617,
      "##etaget": 5618,
      "1989": 5619,
      "##kommit": 5620,
      "ordet": 5621,
      "följde": 5622,
      "pojk": 5623,
      "##lösa": 5624,
      "mäster": 5625,
      "Ali": 5626,
      "##ktorn": 5627,
      "On": 5628,
      "##komma": 5629,
      "Frö": 5630,
      "##ublik": 5631,
      "##enny": 5632,
      "##sse": 5633,
      "##sons": 5634,
      "finner": 5635,
      "##skjut": 5636,
      "##amål": 5637,
      "betalar": 5638,
      "nyck": 5639,
      "##vården": 5640,
      "överenskommelse": 5641,
      "flyttade": 5642,
      "##alitet": 5643,
      "särskilda": 5644,
      "inn": 5645,
      "##har": 5646,
      "Cre": 5647,
      "snarare": 5648,
      "##upen": 5649,
      "##skr": 5650,
      "äkten": 5651,
      "##annes": 5652,
      "Tänk": 5653,
      "terrängen": 5654,
      "##uden": 5655,
      "möta": 5656,
      "81": 5657,
      "max": 5658,
      "skade": 5659,
      "myndigheter": 5660,
      "##kap": 5661,
      "##iven": 5662,
      "total": 5663,
      "Sundsvall": 5664,
      "##ls": 5665,
      "utmärkt": 5666,
      "utifrån": 5667,
      "utform": 5668,
      "konsekvens": 5669,
      "Wh": 5670,
      "1988": 5671,
      "livsmedel": 5672,
      "sens": 5673,
      "Ry": 5674,
      "1985": 5675,
      "sekunder": 5676,
      "cit": 5677,
      "Bre": 5678,
      "##skon": 5679,
      "SP": 5680,
      "Ume": 5681,
      "luften": 5682,
      "Iran": 5683,
      "mottag": 5684,
      "##junkt": 5685,
      "bens": 5686,
      "entré": 5687,
      "uppfattning": 5688,
      "hamnar": 5689,
      "överväg": 5690,
      "kontakter": 5691,
      "Rö": 5692,
      "riktig": 5693,
      "fönster": 5694,
      "Värm": 5695,
      "jud": 5696,
      "##rivill": 5697,
      "Häls": 5698,
      "snäll": 5699,
      "ägg": 5700,
      "expl": 5701,
      "Harry": 5702,
      "Tje": 5703,
      "blandskog": 5704,
      "längs": 5705,
      "##äft": 5706,
      "valde": 5707,
      "länderna": 5708,
      "öm": 5709,
      "Klimat": 5710,
      "Ibland": 5711,
      "Australien": 5712,
      "##sverk": 5713,
      "spelarna": 5714,
      "##såldern": 5715,
      "ryck": 5716,
      "åriga": 5717,
      "salt": 5718,
      "##iled": 5719,
      "vägg": 5720,
      "Israel": 5721,
      "##ydda": 5722,
      "finska": 5723,
      "##amin": 5724,
      "##skottet": 5725,
      "funn": 5726,
      "##85": 5727,
      "110": 5728,
      "##iets": 5729,
      "koncern": 5730,
      "röda": 5731,
      "##värde": 5732,
      "Sökande": 5733,
      "Di": 5734,
      "XX": 5735,
      "terror": 5736,
      "##edde": 5737,
      "genast": 5738,
      "##eran": 5739,
      "rakt": 5740,
      "##itz": 5741,
      "omgivande": 5742,
      "regeringens": 5743,
      "##BS": 5744,
      "##vikt": 5745,
      "##UR": 5746,
      "Resultat": 5747,
      "##BET": 5748,
      "når": 5749,
      "görs": 5750,
      "##21": 5751,
      "ovanligt": 5752,
      "Båda": 5753,
      "värder": 5754,
      "##ale": 5755,
      "sjunger": 5756,
      "Kommun": 5757,
      "tenn": 5758,
      "skar": 5759,
      "arkitekt": 5760,
      "massa": 5761,
      "##porter": 5762,
      "##äson": 5763,
      "##åriga": 5764,
      "döda": 5765,
      "nere": 5766,
      "##umm": 5767,
      "##97": 5768,
      "Los": 5769,
      "oerhört": 5770,
      "förh": 5771,
      "Norra": 5772,
      "roman": 5773,
      "##aff": 5774,
      "grov": 5775,
      "säljer": 5776,
      "##umenter": 5777,
      "Liding": 5778,
      "##ban": 5779,
      "lust": 5780,
      "##äller": 5781,
      "värsta": 5782,
      "Met": 5783,
      "Små": 5784,
      "Göteborgs": 5785,
      "konstrukt": 5786,
      "##éer": 5787,
      "##ännisk": 5788,
      "Kalmar": 5789,
      "Eskil": 5790,
      "Bromma": 5791,
      "##rer": 5792,
      "trupp": 5793,
      "hävdar": 5794,
      "##otter": 5795,
      "1960": 5796,
      "skatte": 5797,
      "formul": 5798,
      "tab": 5799,
      "alkohol": 5800,
      "tider": 5801,
      "vart": 5802,
      "##ancer": 5803,
      "Af": 5804,
      "uppför": 5805,
      "vide": 5806,
      "##delar": 5807,
      "Fack": 5808,
      "##ivet": 5809,
      "##olo": 5810,
      "##stads": 5811,
      "##opa": 5812,
      "förvand": 5813,
      "##skl": 5814,
      "hustru": 5815,
      "Jär": 5816,
      "##osof": 5817,
      "boende": 5818,
      "Nation": 5819,
      "regi": 5820,
      "butik": 5821,
      "##hållanden": 5822,
      "handling": 5823,
      "systemet": 5824,
      "färdig": 5825,
      "förutom": 5826,
      "##isering": 5827,
      "Ram": 5828,
      "gällde": 5829,
      "##93": 5830,
      "Oper": 5831,
      "##dern": 5832,
      "Stra": 5833,
      "##ströms": 5834,
      "##bi": 5835,
      "Jansson": 5836,
      "käm": 5837,
      "##ty": 5838,
      "annons": 5839,
      "skaffa": 5840,
      "##ställningar": 5841,
      "##94": 5842,
      "Bur": 5843,
      "##que": 5844,
      "köper": 5845,
      "##ubliken": 5846,
      "##riga": 5847,
      "Skär": 5848,
      "##vig": 5849,
      "hunnit": 5850,
      "##ebygg": 5851,
      "Antalet": 5852,
      "##ningsför": 5853,
      "turist": 5854,
      "Christer": 5855,
      "åsikt": 5856,
      "##sby": 5857,
      "kal": 5858,
      "Våra": 5859,
      "##gruppen": 5860,
      "uppn": 5861,
      "angiv": 5862,
      "Samma": 5863,
      "sidor": 5864,
      "##familj": 5865,
      "##spelare": 5866,
      "saknas": 5867,
      "gemensamma": 5868,
      "George": 5869,
      "Frågan": 5870,
      "##issionen": 5871,
      "styrelsen": 5872,
      "transport": 5873,
      "avanc": 5874,
      "Ändå": 5875,
      "självständ": 5876,
      "##ilm": 5877,
      "##ställande": 5878,
      "omöjligt": 5879,
      "försvann": 5880,
      "##fe": 5881,
      "##spår": 5882,
      "action": 5883,
      "##bit": 5884,
      "Express": 5885,
      "##varor": 5886,
      "##ilien": 5887,
      "##stam": 5888,
      "##lagen": 5889,
      "Hand": 5890,
      "##änsle": 5891,
      "gjordes": 5892,
      "##elat": 5893,
      "##rut": 5894,
      "sjukhuset": 5895,
      "trapp": 5896,
      "##22": 5897,
      "Soll": 5898,
      "##änna": 5899,
      "historien": 5900,
      "box": 5901,
      "ekonomiskt": 5902,
      "fräs": 5903,
      "busk": 5904,
      "kust": 5905,
      "Umeå": 5906,
      "betydande": 5907,
      "dansk": 5908,
      "Linköping": 5909,
      "##lander": 5910,
      "##vinna": 5911,
      "##rument": 5912,
      "Beg": 5913,
      "arbetade": 5914,
      "##rörelsen": 5915,
      "minn": 5916,
      "##SSON": 5917,
      "rub": 5918,
      "bekräft": 5919,
      "##avdelning": 5920,
      "valt": 5921,
      "Led": 5922,
      "##run": 5923,
      "Vän": 5924,
      "##gande": 5925,
      "ersättning": 5926,
      "##risten": 5927,
      "Oscar": 5928,
      "kong": 5929,
      "##ush": 5930,
      "eli": 5931,
      "Luleå": 5932,
      "tjänstem": 5933,
      "##ski": 5934,
      "##järnan": 5935,
      "attack": 5936,
      "##ellen": 5937,
      "vana": 5938,
      "Emil": 5939,
      "##oth": 5940,
      "Art": 5941,
      "Finns": 5942,
      "##FF": 5943,
      "oms": 5944,
      "undrar": 5945,
      "matt": 5946,
      "Skol": 5947,
      "skapar": 5948,
      "##icer": 5949,
      "##ares": 5950,
      "Tropiskt": 5951,
      "vackert": 5952,
      "häm": 5953,
      "artikel": 5954,
      "Nat": 5955,
      "##eten": 5956,
      "1986": 5957,
      "förmodligen": 5958,
      "lab": 5959,
      "analys": 5960,
      "naturen": 5961,
      "##avdelningen": 5962,
      "Schweiz": 5963,
      "##gångar": 5964,
      "upph": 5965,
      "öre": 5966,
      "data": 5967,
      "maka": 5968,
      "syster": 5969,
      "silver": 5970,
      "hända": 5971,
      "jap": 5972,
      "##sjö": 5973,
      "Ytter": 5974,
      "kommenter": 5975,
      "uppman": 5976,
      "arbetat": 5977,
      "Central": 5978,
      "##aktör": 5979,
      "##schef": 5980,
      "##usentals": 5981,
      "##nast": 5982,
      "låga": 5983,
      "politiskt": 5984,
      "##fyll": 5985,
      "rit": 5986,
      "elva": 5987,
      "##vitt": 5988,
      "##gäng": 5989,
      "Holly": 5990,
      "löv": 5991,
      "##ai": 5992,
      "Nyheters": 5993,
      "handen": 5994,
      "##sbygg": 5995,
      "##TE": 5996,
      "##ko": 5997,
      "åklag": 5998,
      "SJ": 5999,
      "Thor": 6000,
      "Rapport": 6001,
      "##förvalt": 6002,
      "förre": 6003,
      "efteråt": 6004,
      "##umma": 6005,
      "framgår": 6006,
      "##departementet": 6007,
      "bomb": 6008,
      "##vakten": 6009,
      "balans": 6010,
      "sättet": 6011,
      "##kvist": 6012,
      "hyr": 6013,
      "##reppet": 6014,
      "slutar": 6015,
      "inred": 6016,
      "Björk": 6017,
      "verkligheten": 6018,
      "##ross": 6019,
      "##ropp": 6020,
      "internationell": 6021,
      "##anerna": 6022,
      "satsa": 6023,
      "##sto": 6024,
      "##istiskt": 6025,
      "Nic": 6026,
      "mötet": 6027,
      "stann": 6028,
      "naturlig": 6029,
      "##ission": 6030,
      "##ötter": 6031,
      "##ano": 6032,
      "Tekn": 6033,
      "definit": 6034,
      "sing": 6035,
      "således": 6036,
      "##förteckning": 6037,
      "styrelse": 6038,
      "åld": 6039,
      "Närmast": 6040,
      "##uccé": 6041,
      "##kat": 6042,
      "påverka": 6043,
      "##mann": 6044,
      "europeiska": 6045,
      "##igenom": 6046,
      "##egel": 6047,
      "rapport": 6048,
      "pratar": 6049,
      "frän": 6050,
      "##kunn": 6051,
      "sannolikt": 6052,
      "Bredden": 6053,
      "##spart": 6054,
      "gjorts": 6055,
      "##åten": 6056,
      "förändring": 6057,
      "Kin": 6058,
      "radi": 6059,
      "##ylt": 6060,
      "stånd": 6061,
      "##ient": 6062,
      "Part": 6063,
      "Osl": 6064,
      "Jord": 6065,
      "##ehov": 6066,
      "problemet": 6067,
      "180": 6068,
      "hålls": 6069,
      "rätten": 6070,
      "skett": 6071,
      "tidningar": 6072,
      "##gern": 6073,
      "##mod": 6074,
      "dela": 6075,
      "konferens": 6076,
      "tuff": 6077,
      "tidning": 6078,
      "##slösa": 6079,
      "##sjuk": 6080,
      "kontin": 6081,
      "Ko": 6082,
      "##llop": 6083,
      "##jäm": 6084,
      "osäker": 6085,
      "Ahl": 6086,
      "skolor": 6087,
      "hål": 6088,
      "##organisation": 6089,
      "familjer": 6090,
      "##edda": 6091,
      "##änger": 6092,
      "blom": 6093,
      "##ssam": 6094,
      "Su": 6095,
      "avdelning": 6096,
      "##hr": 6097,
      "barnbarn": 6098,
      "avser": 6099,
      "##ARE": 6100,
      "tittar": 6101,
      "skada": 6102,
      "uppmärksam": 6103,
      "Kap": 6104,
      "##alog": 6105,
      "tillägg": 6106,
      "Hit": 6107,
      "Ericsson": 6108,
      "Tomas": 6109,
      "stall": 6110,
      "männen": 6111,
      "##reta": 6112,
      "författaren": 6113,
      "Lek": 6114,
      "##häng": 6115,
      "märkt": 6116,
      "Mac": 6117,
      "##platser": 6118,
      "museet": 6119,
      "##vention": 6120,
      "beslutet": 6121,
      "divis": 6122,
      "##bär": 6123,
      "##flyg": 6124,
      "arbetsplats": 6125,
      "loss": 6126,
      "nedan": 6127,
      "träffar": 6128,
      "##grän": 6129,
      "strateg": 6130,
      "##26": 6131,
      "Hol": 6132,
      "ordentligt": 6133,
      "show": 6134,
      "las": 6135,
      "konflikt": 6136,
      "##rädare": 6137,
      "föddes": 6138,
      "##inger": 6139,
      "Klar": 6140,
      "högskol": 6141,
      "1984": 6142,
      "tviv": 6143,
      "VD": 6144,
      "Löf": 6145,
      "##ierade": 6146,
      "Kenn": 6147,
      "brut": 6148,
      "##efte": 6149,
      "past": 6150,
      "potatis": 6151,
      "totala": 6152,
      "ont": 6153,
      "Hav": 6154,
      "##rädd": 6155,
      "##ståndet": 6156,
      "fyller": 6157,
      "Are": 6158,
      "föremål": 6159,
      "sträcker": 6160,
      "##igar": 6161,
      "##iering": 6162,
      "##34": 6163,
      "utställning": 6164,
      "Därmed": 6165,
      "kommentar": 6166,
      "##che": 6167,
      "värre": 6168,
      "##organ": 6169,
      "vågar": 6170,
      "Anton": 6171,
      "gul": 6172,
      "##ago": 6173,
      "##ehåll": 6174,
      "energ": 6175,
      "byta": 6176,
      "lade": 6177,
      "Maj": 6178,
      "angel": 6179,
      "förändringar": 6180,
      "Grön": 6181,
      "dokumentärserie": 6182,
      "##läggningen": 6183,
      "enkl": 6184,
      "myndigheterna": 6185,
      "försökt": 6186,
      "Tem": 6187,
      "Mexiko": 6188,
      "##arg": 6189,
      "allvarligt": 6190,
      "garanter": 6191,
      "söm": 6192,
      "Ron": 6193,
      "åk": 6194,
      "Ingvar": 6195,
      "sorg": 6196,
      "##näs": 6197,
      "kostnader": 6198,
      "korta": 6199,
      "ställde": 6200,
      "Förutom": 6201,
      "akadem": 6202,
      "Jean": 6203,
      "##avgift": 6204,
      "stål": 6205,
      "ryss": 6206,
      "lekt": 6207,
      "##erial": 6208,
      "##sborg": 6209,
      "bollen": 6210,
      "Vik": 6211,
      "talets": 6212,
      "föreslår": 6213,
      "planer": 6214,
      "uppträ": 6215,
      "Fre": 6216,
      "1987": 6217,
      "Rosen": 6218,
      "kyl": 6219,
      "Jacob": 6220,
      "erbjuda": 6221,
      "##ftet": 6222,
      "##ampen": 6223,
      "badrum": 6224,
      "stadens": 6225,
      "sammanlagt": 6226,
      "rena": 6227,
      "##ningsvis": 6228,
      "##ega": 6229,
      "Dokumentär": 6230,
      "Bru": 6231,
      "##hjälp": 6232,
      "åtskill": 6233,
      "##lik": 6234,
      "##ova": 6235,
      "x": 6236,
      "##ånad": 6237,
      "##otte": 6238,
      "Fors": 6239,
      "revolut": 6240,
      "##84": 6241,
      "##estad": 6242,
      "ww": 6243,
      "Ver": 6244,
      "##blom": 6245,
      "äntligen": 6246,
      "##börj": 6247,
      "strand": 6248,
      "utomlands": 6249,
      "föref": 6250,
      "marken": 6251,
      "exist": 6252,
      "förekomm": 6253,
      "Dem": 6254,
      "lyx": 6255,
      "hårda": 6256,
      "arrang": 6257,
      "##lay": 6258,
      "##cel": 6259,
      "##SKA": 6260,
      "##öjd": 6261,
      "varor": 6262,
      "##rift": 6263,
      "tyng": 6264,
      "kompletter": 6265,
      "åskåd": 6266,
      "900": 6267,
      "styrka": 6268,
      "föra": 6269,
      "##lopp": 6270,
      "##juka": 6271,
      "faller": 6272,
      "chock": 6273,
      "##hund": 6274,
      "www": 6275,
      "förste": 6276,
      "To": 6277,
      "##stat": 6278,
      "konkurs": 6279,
      "##rorna": 6280,
      "##örn": 6281,
      "##jäll": 6282,
      "app": 6283,
      "##landskap": 6284,
      "läkemedel": 6285,
      "##efatt": 6286,
      "kandid": 6287,
      "mäng": 6288,
      "Dr": 6289,
      "hänger": 6290,
      "##ua": 6291,
      "Svan": 6292,
      "skicka": 6293,
      "trett": 6294,
      "helgen": 6295,
      "växtlighet": 6296,
      "##kost": 6297,
      "sonen": 6298,
      "##sken": 6299,
      "##sar": 6300,
      "##järna": 6301,
      "beteck": 6302,
      "Slut": 6303,
      "gu": 6304,
      "planen": 6305,
      "klin": 6306,
      "##spond": 6307,
      "kriminalserie": 6308,
      "##ole": 6309,
      "Samt": 6310,
      "militära": 6311,
      "Sär": 6312,
      "##klund": 6313,
      "Internation": 6314,
      "bekym": 6315,
      "försäk": 6316,
      "kult": 6317,
      "##sli": 6318,
      "minsta": 6319,
      "##beroende": 6320,
      "##edagog": 6321,
      "Fru": 6322,
      "äter": 6323,
      "mängd": 6324,
      "##ii": 6325,
      "drö": 6326,
      "ax": 6327,
      "orol": 6328,
      "##derar": 6329,
      "##nummer": 6330,
      "Lo": 6331,
      "opin": 6332,
      "verksam": 6333,
      "##tas": 6334,
      "Endast": 6335,
      "vinnare": 6336,
      "hall": 6337,
      "eleg": 6338,
      "Gustafsson": 6339,
      "##37": 6340,
      "##OCK": 6341,
      "ep": 6342,
      "syfte": 6343,
      "italienska": 6344,
      "offentlig": 6345,
      "##kontoret": 6346,
      "##pr": 6347,
      "barnet": 6348,
      "Klimatet": 6349,
      "##smän": 6350,
      "Van": 6351,
      "inspel": 6352,
      "Alexander": 6353,
      "##skiftet": 6354,
      "##usive": 6355,
      "##sida": 6356,
      "##plom": 6357,
      "##ekul": 6358,
      "##cin": 6359,
      "Pol": 6360,
      "öl": 6361,
      "tillhanda": 6362,
      "#": 6363,
      "##ilen": 6364,
      "##lister": 6365,
      "##sverket": 6366,
      "omständ": 6367,
      "självklart": 6368,
      "##start": 6369,
      "praktiskt": 6370,
      "Gran": 6371,
      "Fa": 6372,
      "personalen": 6373,
      "##iger": 6374,
      "##shuset": 6375,
      "nark": 6376,
      "##way": 6377,
      "sammans": 6378,
      "krafter": 6379,
      "##demokraterna": 6380,
      "##värda": 6381,
      "##igheterna": 6382,
      "ye": 6383,
      "antingen": 6384,
      "Alf": 6385,
      "Medelhav": 6386,
      "sur": 6387,
      "Roger": 6388,
      "##fabrik": 6389,
      "träffade": 6390,
      "##istern": 6391,
      "##emar": 6392,
      "##ställt": 6393,
      "mo": 6394,
      "dåliga": 6395,
      "##göra": 6396,
      "Strand": 6397,
      "Georg": 6398,
      "avb": 6399,
      "sprid": 6400,
      "tävlingen": 6401,
      "stry": 6402,
      "##idan": 6403,
      "nerv": 6404,
      "##bilar": 6405,
      "debatten": 6406,
      "##BER": 6407,
      "Ord": 6408,
      "##tyskland": 6409,
      "##ussen": 6410,
      "Halm": 6411,
      "funnits": 6412,
      "behövde": 6413,
      "##sarbete": 6414,
      "exkl": 6415,
      "halvlek": 6416,
      "##eka": 6417,
      "strej": 6418,
      "spri": 6419,
      "Hade": 6420,
      "##oma": 6421,
      "hyra": 6422,
      "synes": 6423,
      "Adam": 6424,
      "säkra": 6425,
      "Leag": 6426,
      "##bjud": 6427,
      "Hudd": 6428,
      "pe": 6429,
      "tyvärr": 6430,
      "patienter": 6431,
      "vägar": 6432,
      "advokat": 6433,
      "bergig": 6434,
      "stabil": 6435,
      "tull": 6436,
      "##terar": 6437,
      "Rock": 6438,
      "faktum": 6439,
      "Japan": 6440,
      "##dagens": 6441,
      "starten": 6442,
      "risken": 6443,
      "##terade": 6444,
      "orig": 6445,
      "##ré": 6446,
      "varmt": 6447,
      "IN": 6448,
      "sägs": 6449,
      "gatan": 6450,
      "gemensamt": 6451,
      "Hollywood": 6452,
      "Sil": 6453,
      "Lägg": 6454,
      "bist": 6455,
      "##väm": 6456,
      "##ifte": 6457,
      "Upplysningar": 6458,
      "Följ": 6459,
      "##skoll": 6460,
      "##plac": 6461,
      "Ev": 6462,
      "EG": 6463,
      "mell": 6464,
      "sovjet": 6465,
      "##sex": 6466,
      "##86": 6467,
      "forsknings": 6468,
      "Ren": 6469,
      "SO": 6470,
      "No": 6471,
      "former": 6472,
      "kilo": 6473,
      "tanken": 6474,
      "Ola": 6475,
      "##nars": 6476,
      "##entuna": 6477,
      "Skulle": 6478,
      "##outh": 6479,
      "uppåt": 6480,
      "##skyld": 6481,
      "##öjligheter": 6482,
      "omt": 6483,
      "affärer": 6484,
      "solen": 6485,
      "##skaff": 6486,
      "##atin": 6487,
      "vintern": 6488,
      "blomm": 6489,
      "##stäm": 6490,
      "tvåa": 6491,
      "elektron": 6492,
      "##vapen": 6493,
      "##urer": 6494,
      "##abel": 6495,
      "##unnen": 6496,
      "ARBET": 6497,
      "Åt": 6498,
      "togs": 6499,
      "bostäder": 6500,
      "Wash": 6501,
      "menade": 6502,
      "##orth": 6503,
      "1982": 6504,
      "planet": 6505,
      "Dansk": 6506,
      "föreg": 6507,
      "##87": 6508,
      "Fyra": 6509,
      "Skåne": 6510,
      "Pal": 6511,
      "möjligen": 6512,
      "frivill": 6513,
      "Birgitta": 6514,
      "savann": 6515,
      "verklighet": 6516,
      "Ohl": 6517,
      "##natt": 6518,
      "konkurrens": 6519,
      "Jes": 6520,
      "konstaterar": 6521,
      "##ärd": 6522,
      "##öjt": 6523,
      "##yter": 6524,
      "allmänt": 6525,
      "utvecklas": 6526,
      "##stuga": 6527,
      "##läge": 6528,
      "musiken": 6529,
      "morgonen": 6530,
      "nyf": 6531,
      "Son": 6532,
      "sed": 6533,
      "desto": 6534,
      "åstad": 6535,
      "##bler": 6536,
      "##institut": 6537,
      "vir": 6538,
      "proff": 6539,
      "studie": 6540,
      "förlorat": 6541,
      "##satta": 6542,
      "Kost": 6543,
      "katastrof": 6544,
      "##slin": 6545,
      "##OLM": 6546,
      "##skapen": 6547,
      "##grunden": 6548,
      "##ragen": 6549,
      "Mont": 6550,
      "bem": 6551,
      "pär": 6552,
      "##skrona": 6553,
      "##ötet": 6554,
      "Wahl": 6555,
      "kaffe": 6556,
      "##server": 6557,
      "Lidingö": 6558,
      "##speri": 6559,
      "alt": 6560,
      "##mo": 6561,
      "svårare": 6562,
      "dött": 6563,
      "gälla": 6564,
      "##ENS": 6565,
      "##ografi": 6566,
      "fortsättningen": 6567,
      "bön": 6568,
      "##reck": 6569,
      "Bol": 6570,
      "##mas": 6571,
      "framtida": 6572,
      "dokument": 6573,
      "##stav": 6574,
      "ytterst": 6575,
      "##kun": 6576,
      "##vatt": 6577,
      "dörren": 6578,
      "lagstift": 6579,
      "bodde": 6580,
      "##industri": 6581,
      "fal": 6582,
      "##riktad": 6583,
      "Läk": 6584,
      "##iro": 6585,
      "##ba": 6586,
      "ringde": 6587,
      "hette": 6588,
      "nordvästra": 6589,
      "##iek": 6590,
      "bast": 6591,
      "##etts": 6592,
      "##steg": 6593,
      "Krimin": 6594,
      "kre": 6595,
      "driva": 6596,
      "hälsa": 6597,
      "företagen": 6598,
      "##plikt": 6599,
      "##estämm": 6600,
      "kup": 6601,
      "Nob": 6602,
      "åber": 6603,
      "extrem": 6604,
      "tvärt": 6605,
      "gas": 6606,
      "arbetsgiv": 6607,
      "borg": 6608,
      "oavsett": 6609,
      "eventuellt": 6610,
      "##hn": 6611,
      "##igger": 6612,
      "rund": 6613,
      "tunga": 6614,
      "fantas": 6615,
      "vice": 6616,
      "Elisa": 6617,
      "IS": 6618,
      "##yndigheten": 6619,
      "fräsch": 6620,
      "##görelse": 6621,
      "Engel": 6622,
      "##föring": 6623,
      "um": 6624,
      "erfarenheter": 6625,
      "1950": 6626,
      "Char": 6627,
      "fungera": 6628,
      "##ripande": 6629,
      "utrustning": 6630,
      "##kter": 6631,
      "tråk": 6632,
      "Oslo": 6633,
      "pal": 6634,
      "krets": 6635,
      "##wn": 6636,
      "Personal": 6637,
      "skor": 6638,
      "##ival": 6639,
      "Wik": 6640,
      "egendom": 6641,
      "##ÄL": 6642,
      "diskutera": 6643,
      "Ter": 6644,
      "organ": 6645,
      "##varen": 6646,
      "landslaget": 6647,
      "Deras": 6648,
      "röster": 6649,
      "djupt": 6650,
      "bom": 6651,
      "Tä": 6652,
      "skogen": 6653,
      "##back": 6654,
      "So": 6655,
      "student": 6656,
      "stoppa": 6657,
      "förhör": 6658,
      "##stekn": 6659,
      "nån": 6660,
      "##insats": 6661,
      "##LA": 6662,
      "##läng": 6663,
      "noggr": 6664,
      "misstänk": 6665,
      "ked": 6666,
      "förhopp": 6667,
      "Annars": 6668,
      "resan": 6669,
      "##rollen": 6670,
      "nordiska": 6671,
      "##ocke": 6672,
      "deltog": 6673,
      "Bak": 6674,
      "##unga": 6675,
      "ansvaret": 6676,
      "beträffande": 6677,
      "##ike": 6678,
      "borgerliga": 6679,
      "HD": 6680,
      "känslor": 6681,
      "##EK": 6682,
      "Inter": 6683,
      "##UN": 6684,
      "liber": 6685,
      "##sven": 6686,
      "Creek": 6687,
      "Bal": 6688,
      "##ht": 6689,
      "behålla": 6690,
      "lyssna": 6691,
      "as": 6692,
      "##litt": 6693,
      "gest": 6694,
      "##iserade": 6695,
      "Mr": 6696,
      "##sberg": 6697,
      "härom": 6698,
      "reag": 6699,
      "##vatten": 6700,
      "##bas": 6701,
      "Turk": 6702,
      "##how": 6703,
      "driver": 6704,
      "hävd": 6705,
      "Jakob": 6706,
      "EN": 6707,
      "kryss": 6708,
      "anord": 6709,
      "Indones": 6710,
      "1975": 6711,
      "inkom": 6712,
      "glada": 6713,
      "##ägenhet": 6714,
      "##åter": 6715,
      "partiled": 6716,
      "##ikerna": 6717,
      "##sstyrelsen": 6718,
      "kändes": 6719,
      "Får": 6720,
      "##resor": 6721,
      "varv": 6722,
      "Indien": 6723,
      "##utveckling": 6724,
      "##äcken": 6725,
      "massor": 6726,
      "golf": 6727,
      "gud": 6728,
      "are": 6729,
      "Mäl": 6730,
      "underhållning": 6731,
      "##dd": 6732,
      "möjliga": 6733,
      "ledaren": 6734,
      "##ssystem": 6735,
      "League": 6736,
      "tvingades": 6737,
      "återupp": 6738,
      "Hot": 6739,
      "mät": 6740,
      "##oren": 6741,
      "##örs": 6742,
      "rättegång": 6743,
      "hann": 6744,
      "Jonsson": 6745,
      "trum": 6746,
      "inbland": 6747,
      "Handel": 6748,
      "äro": 6749,
      "trivs": 6750,
      "Boh": 6751,
      "exempl": 6752,
      "rättigheter": 6753,
      "perspektiv": 6754,
      "anges": 6755,
      "##juter": 6756,
      "##ATION": 6757,
      "försvinner": 6758,
      "Solv": 6759,
      "##issa": 6760,
      "##riva": 6761,
      "##akta": 6762,
      "Söker": 6763,
      "stift": 6764,
      "sysk": 6765,
      "världskriget": 6766,
      "##sserie": 6767,
      "riskerar": 6768,
      "ögonen": 6769,
      "##byte": 6770,
      "Eskilst": 6771,
      "Ern": 6772,
      "Lisa": 6773,
      "oblig": 6774,
      "##press": 6775,
      "underl": 6776,
      "##alisering": 6777,
      "sekreterare": 6778,
      "Hy": 6779,
      "##olyck": 6780,
      "köpte": 6781,
      "bur": 6782,
      "Kim": 6783,
      "##ati": 6784,
      "##värder": 6785,
      "gäster": 6786,
      "bu": 6787,
      "het": 6788,
      "##annan": 6789,
      "Sus": 6790,
      "besl": 6791,
      "##olvet": 6792,
      "##stra": 6793,
      "enkla": 6794,
      "strukt": 6795,
      "mel": 6796,
      "let": 6797,
      "##föranden": 6798,
      "lott": 6799,
      "##ekan": 6800,
      "Ock": 6801,
      "##iera": 6802,
      "anslutning": 6803,
      "##made": 6804,
      "Beck": 6805,
      "idéer": 6806,
      "count": 6807,
      "we": 6808,
      "repar": 6809,
      "Rol": 6810,
      "Sex": 6811,
      "AT": 6812,
      "Tillsammans": 6813,
      "allmänheten": 6814,
      "Ulla": 6815,
      "140": 6816,
      "##iskop": 6817,
      "Flyg": 6818,
      "##äta": 6819,
      "tingsrätt": 6820,
      "hamnade": 6821,
      "##useum": 6822,
      "enorm": 6823,
      "bror": 6824,
      "##own": 6825,
      "##ogs": 6826,
      "blick": 6827,
      "##efteå": 6828,
      "##ulet": 6829,
      "flykting": 6830,
      "Polen": 6831,
      "skedde": 6832,
      "socialt": 6833,
      "bedö": 6834,
      "##skal": 6835,
      "tjock": 6836,
      "assist": 6837,
      "Washington": 6838,
      "snabba": 6839,
      "##sport": 6840,
      "##ositionen": 6841,
      "beseg": 6842,
      "verkliga": 6843,
      "gär": 6844,
      "Ak": 6845,
      "Sommar": 6846,
      "Bay": 6847,
      "dyk": 6848,
      "##köpings": 6849,
      "längd": 6850,
      "hundrat": 6851,
      "rörelse": 6852,
      "istället": 6853,
      "partier": 6854,
      "Plats": 6855,
      "##mon": 6856,
      "sprit": 6857,
      "praktisk": 6858,
      "##enhet": 6859,
      "##rafiken": 6860,
      "##mäktige": 6861,
      "sålunda": 6862,
      "##resultat": 6863,
      "inslag": 6864,
      "Im": 6865,
      "hett": 6866,
      "uppenbar": 6867,
      "avgift": 6868,
      "verkade": 6869,
      "##aliska": 6870,
      "statens": 6871,
      "##mos": 6872,
      "protest": 6873,
      "##orda": 6874,
      "äktenskap": 6875,
      "Palme": 6876,
      "##angen": 6877,
      "##83": 6878,
      "##sgrupp": 6879,
      "##freds": 6880,
      "##gnos": 6881,
      "##sänd": 6882,
      "Indonesien": 6883,
      "##anst": 6884,
      "##éns": 6885,
      "Eli": 6886,
      "rummet": 6887,
      "##gu": 6888,
      "slagit": 6889,
      "##ikapp": 6890,
      "##onder": 6891,
      "nationella": 6892,
      "uteslut": 6893,
      "OOO": 6894,
      "1983": 6895,
      "ändra": 6896,
      "hittade": 6897,
      "##idrott": 6898,
      "##bolaget": 6899,
      "Rune": 6900,
      "##repren": 6901,
      "tillfällen": 6902,
      "avdel": 6903,
      "##bur": 6904,
      "station": 6905,
      "speciella": 6906,
      "Kons": 6907,
      "teatern": 6908,
      "1800": 6909,
      "möjligheten": 6910,
      "lägenheter": 6911,
      "förhandlingar": 6912,
      "##visor": 6913,
      "torg": 6914,
      "##städer": 6915,
      "##skapten": 6916,
      "kris": 6917,
      "Ekonom": 6918,
      "fader": 6919,
      "##UND": 6920,
      "grek": 6921,
      "Tu": 6922,
      "1968": 6923,
      "otroligt": 6924,
      "##asa": 6925,
      "chefen": 6926,
      "##flykt": 6927,
      "Andreas": 6928,
      "##änkande": 6929,
      "ägare": 6930,
      "##lö": 6931,
      "Tack": 6932,
      "1979": 6933,
      "SÖ": 6934,
      "rutin": 6935,
      "medborgare": 6936,
      "##icka": 6937,
      "##säker": 6938,
      "offens": 6939,
      "siffror": 6940,
      "påm": 6941,
      "intressanta": 6942,
      "lämplig": 6943,
      "##cience": 6944,
      "deklar": 6945,
      "block": 6946,
      "metod": 6947,
      "noll": 6948,
      "##SB": 6949,
      "kvinnorna": 6950,
      "##kore": 6951,
      "grunden": 6952,
      "##IV": 6953,
      "OBS": 6954,
      "##isera": 6955,
      "marg": 6956,
      "##saker": 6957,
      "##esa": 6958,
      "överg": 6959,
      "Ru": 6960,
      "busklandskap": 6961,
      "sköta": 6962,
      "galopp": 6963,
      "Brasilien": 6964,
      "konkurren": 6965,
      "Ford": 6966,
      "genomföra": 6967,
      "##ustr": 6968,
      "##skytt": 6969,
      "fara": 6970,
      "bytt": 6971,
      "##park": 6972,
      "##problem": 6973,
      "##ysning": 6974,
      "internationellt": 6975,
      "representanter": 6976,
      "1981": 6977,
      "skönt": 6978,
      "##smed": 6979,
      "sign": 6980,
      "dygn": 6981,
      "##föreningen": 6982,
      "väld": 6983,
      "gården": 6984,
      "1976": 6985,
      "##skilt": 6986,
      "åring": 6987,
      "matlag": 6988,
      "##ove": 6989,
      "##sand": 6990,
      "äng": 6991,
      "öppnar": 6992,
      "##HOLM": 6993,
      "Ingrid": 6994,
      "normal": 6995,
      "Förra": 6996,
      "sökes": 6997,
      "##spris": 6998,
      "bestämmer": 6999,
      "##vest": 7000,
      "Fotboll": 7001,
      "##ield": 7002,
      "tf": 7003,
      "startar": 7004,
      "handla": 7005,
      "Kristian": 7006,
      "återf": 7007,
      "##politik": 7008,
      "##inalen": 7009,
      "Cup": 7010,
      "avled": 7011,
      "##sområde": 7012,
      "Grek": 7013,
      "Veck": 7014,
      "innebära": 7015,
      "lönek": 7016,
      "färger": 7017,
      "skräck": 7018,
      "relation": 7019,
      "klag": 7020,
      "Robin": 7021,
      "##ekade": 7022,
      "praktik": 7023,
      "##iction": 7024,
      "blott": 7025,
      "Eskilstuna": 7026,
      "jurid": 7027,
      "##ivån": 7028,
      "##rien": 7029,
      "säng": 7030,
      "##miss": 7031,
      "##sområden": 7032,
      "##alism": 7033,
      "Claes": 7034,
      "Ytterligare": 7035,
      "##önt": 7036,
      "Växjö": 7037,
      "hittat": 7038,
      "stads": 7039,
      "Speci": 7040,
      "förlag": 7041,
      "fäst": 7042,
      "fransk": 7043,
      "intryck": 7044,
      "Fer": 7045,
      "främmande": 7046,
      "##äppklimat": 7047,
      "tankar": 7048,
      "##shem": 7049,
      "##läkare": 7050,
      "mjölk": 7051,
      "Norden": 7052,
      "njut": 7053,
      "Kerstin": 7054,
      "##nu": 7055,
      "Sel": 7056,
      "Syda": 7057,
      "distri": 7058,
      "vända": 7059,
      "minnes": 7060,
      "##auf": 7061,
      "##74": 7062,
      "häkt": 7063,
      "bag": 7064,
      "befri": 7065,
      "##sledare": 7066,
      "öken": 7067,
      "1971": 7068,
      "UPP": 7069,
      "sorter": 7070,
      "##hm": 7071,
      "Kär": 7072,
      "olje": 7073,
      "Huddinge": 7074,
      "##aland": 7075,
      "enhet": 7076,
      "##sre": 7077,
      "hamn": 7078,
      "isol": 7079,
      "##zon": 7080,
      "naturligt": 7081,
      "undervis": 7082,
      "avseende": 7083,
      "1972": 7084,
      "##björn": 7085,
      "smärt": 7086,
      "##försvar": 7087,
      "igång": 7088,
      "Bergman": 7089,
      "starta": 7090,
      "naz": 7091,
      "majoritet": 7092,
      "##vande": 7093,
      "äld": 7094,
      "beredd": 7095,
      "##omt": 7096,
      "upplag": 7097,
      "##useet": 7098,
      "Lör": 7099,
      "##sfall": 7100,
      "minut": 7101,
      "koncentr": 7102,
      "mats": 7103,
      "##wall": 7104,
      "pil": 7105,
      "populär": 7106,
      "Black": 7107,
      "va": 7108,
      "still": 7109,
      "##pan": 7110,
      "kredit": 7111,
      "bibliotek": 7112,
      "onöd": 7113,
      "ämnen": 7114,
      "Nacka": 7115,
      "planering": 7116,
      "##STA": 7117,
      "##värld": 7118,
      "Star": 7119,
      "130": 7120,
      "Pass": 7121,
      "passager": 7122,
      "bröd": 7123,
      "1974": 7124,
      "##rass": 7125,
      "organisationer": 7126,
      "rabatt": 7127,
      "##stöd": 7128,
      "förmed": 7129,
      "104": 7130,
      "##kv": 7131,
      "reson": 7132,
      "nied": 7133,
      "##ornas": 7134,
      "Rick": 7135,
      "##punkten": 7136,
      "##UM": 7137,
      "##öna": 7138,
      "förläng": 7139,
      "##avägen": 7140,
      "praktiken": 7141,
      "Sundby": 7142,
      "Drottning": 7143,
      "avstånd": 7144,
      "annonser": 7145,
      "starkare": 7146,
      "Inget": 7147,
      "Nästa": 7148,
      "konsert": 7149,
      "Alm": 7150,
      "inträffade": 7151,
      "##kommande": 7152,
      "förutsättning": 7153,
      "attrakt": 7154,
      "omfattning": 7155,
      "lad": 7156,
      "kvarter": 7157,
      "dottern": 7158,
      "Sänd": 7159,
      "träng": 7160,
      "jämte": 7161,
      "bröst": 7162,
      "positivt": 7163,
      "mjuk": 7164,
      "kvitt": 7165,
      "riktiga": 7166,
      "##umt": 7167,
      "Elf": 7168,
      "##spunkt": 7169,
      "offer": 7170,
      "Täby": 7171,
      "Herr": 7172,
      "verkligt": 7173,
      "ryggen": 7174,
      "utspel": 7175,
      "metoder": 7176,
      "hjärta": 7177,
      "bana": 7178,
      "välkommen": 7179,
      "Brand": 7180,
      "klassiska": 7181,
      "Super": 7182,
      "so": 7183,
      "out": 7184,
      "optim": 7185,
      "kommunerna": 7186,
      "diplom": 7187,
      "##prin": 7188,
      "Vissa": 7189,
      "möjlig": 7190,
      "bryta": 7191,
      "##taland": 7192,
      "cykel": 7193,
      "motion": 7194,
      "Vilken": 7195,
      "##dell": 7196,
      "Ingemar": 7197,
      "1973": 7198,
      "Milj": 7199,
      "##jev": 7200,
      "##samlingen": 7201,
      "ränta": 7202,
      "yttre": 7203,
      "rörande": 7204,
      "##ärerna": 7205,
      "##bru": 7206,
      "fan": 7207,
      "Ever": 7208,
      "Inför": 7209,
      "##atte": 7210,
      "##ugos": 7211,
      "##lit": 7212,
      "hinder": 7213,
      "rubrik": 7214,
      "Bild": 7215,
      "beskriver": 7216,
      "kommunikation": 7217,
      "myst": 7218,
      "konsument": 7219,
      "vist": 7220,
      "##oten": 7221,
      "byr": 7222,
      "eko": 7223,
      "makten": 7224,
      "install": 7225,
      "it": 7226,
      "##röva": 7227,
      "##DAG": 7228,
      "föreslag": 7229,
      "Lilla": 7230,
      "##oler": 7231,
      "Jas": 7232,
      "##sförs": 7233,
      "Region": 7234,
      "aut": 7235,
      "##unta": 7236,
      "##oga": 7237,
      "läst": 7238,
      "##läggande": 7239,
      "hemmet": 7240,
      "recept": 7241,
      "dusch": 7242,
      "semif": 7243,
      "##enad": 7244,
      "##ledaren": 7245,
      "Skell": 7246,
      "Johannes": 7247,
      "##ämligen": 7248,
      "##delen": 7249,
      "figur": 7250,
      "Djurgård": 7251,
      "återstår": 7252,
      "mänskliga": 7253,
      "forskare": 7254,
      "##to": 7255,
      "##elius": 7256,
      "västlig": 7257,
      "försvaret": 7258,
      "succé": 7259,
      "##ENT": 7260,
      "begrav": 7261,
      "ting": 7262,
      "samhällen": 7263,
      "äkta": 7264,
      "##grupper": 7265,
      "fördes": 7266,
      "bio": 7267,
      "##deb": 7268,
      "Karlstad": 7269,
      "landsk": 7270,
      "##aktionen": 7271,
      "trevligt": 7272,
      "Birger": 7273,
      "Öppet": 7274,
      "Wester": 7275,
      "skådespelare": 7276,
      "växte": 7277,
      "uppmärksamhet": 7278,
      "Fel": 7279,
      "Str": 7280,
      "ärenden": 7281,
      "Jönköping": 7282,
      "Gal": 7283,
      "Mod": 7284,
      "kungen": 7285,
      "svårigheter": 7286,
      "Sto": 7287,
      "uppger": 7288,
      "Reuter": 7289,
      "människan": 7290,
      "fond": 7291,
      "göm": 7292,
      "Östersund": 7293,
      "##rycket": 7294,
      "kallad": 7295,
      "hat": 7296,
      "utåt": 7297,
      "gamm": 7298,
      "kläd": 7299,
      "##DE": 7300,
      "segrar": 7301,
      "lic": 7302,
      "hinner": 7303,
      "Christian": 7304,
      "Form": 7305,
      "undvika": 7306,
      "##jort": 7307,
      "grep": 7308,
      "arab": 7309,
      "bransch": 7310,
      "Jul": 7311,
      "##ental": 7312,
      "make": 7313,
      "103": 7314,
      "inflytande": 7315,
      "kampen": 7316,
      "he": 7317,
      "charm": 7318,
      "kulle": 7319,
      "ökning": 7320,
      "125": 7321,
      "ått": 7322,
      "positiva": 7323,
      "beton": 7324,
      "##ebo": 7325,
      "kapac": 7326,
      "tvärtom": 7327,
      "##stitut": 7328,
      "filosof": 7329,
      "##ubben": 7330,
      "SL": 7331,
      "snabbare": 7332,
      "##bad": 7333,
      "Bonn": 7334,
      "##cy": 7335,
      "Mid": 7336,
      "Mu": 7337,
      "Hasse": 7338,
      "engelsk": 7339,
      "ovänt": 7340,
      "skuld": 7341,
      "##ologisk": 7342,
      "Tj": 7343,
      "Roy": 7344,
      "##trädande": 7345,
      "Polis": 7346,
      "##dagar": 7347,
      "rus": 7348,
      "synd": 7349,
      "stått": 7350,
      "utrymme": 7351,
      "förbin": 7352,
      "försäljnings": 7353,
      "##åningen": 7354,
      "gram": 7355,
      "fasta": 7356,
      "nått": 7357,
      "separ": 7358,
      "Innan": 7359,
      "##röd": 7360,
      "bröllop": 7361,
      "##ktyg": 7362,
      "Vall": 7363,
      "##AB": 7364,
      "@": 7365,
      "snack": 7366,
      "vänder": 7367,
      "Götaland": 7368,
      "lärt": 7369,
      "##ivalen": 7370,
      "##ele": 7371,
      "##dist": 7372,
      "##önstret": 7373,
      "##stein": 7374,
      "##ordningen": 7375,
      "olja": 7376,
      "vila": 7377,
      "##slam": 7378,
      "Stan": 7379,
      "pan": 7380,
      "AD": 7381,
      "Bell": 7382,
      "sop": 7383,
      "Grand": 7384,
      "##rinningsområdet": 7385,
      "tål": 7386,
      "Möj": 7387,
      "partierna": 7388,
      "Hill": 7389,
      "föräldrarna": 7390,
      "bestämma": 7391,
      "toppen": 7392,
      "##priset": 7393,
      "personlig": 7394,
      "Erfarenhet": 7395,
      "stycken": 7396,
      "sydlig": 7397,
      "##bom": 7398,
      "##gås": 7399,
      "olymp": 7400,
      "tjänstgöring": 7401,
      "##arina": 7402,
      "ränt": 7403,
      "Vårt": 7404,
      "anhör": 7405,
      "##ani": 7406,
      "ifrågas": 7407,
      "Sä": 7408,
      "överallt": 7409,
      "anställd": 7410,
      "##hard": 7411,
      "sänk": 7412,
      "bensin": 7413,
      "skadade": 7414,
      "motsvarar": 7415,
      "Arbetsuppgifter": 7416,
      "##skrift": 7417,
      "hell": 7418,
      "Full": 7419,
      "ack": 7420,
      "##gäst": 7421,
      "Miss": 7422,
      "Ly": 7423,
      "Gotland": 7424,
      "##ORT": 7425,
      "##avtal": 7426,
      "##okal": 7427,
      "##nare": 7428,
      "NHL": 7429,
      "bredvid": 7430,
      "sand": 7431,
      "OCH": 7432,
      "##eled": 7433,
      "Aktuellt": 7434,
      "halva": 7435,
      "Horn": 7436,
      "tids": 7437,
      "Ang": 7438,
      "##aster": 7439,
      "Skriv": 7440,
      "hed": 7441,
      "helhet": 7442,
      "politiken": 7443,
      "##sessan": 7444,
      "fukt": 7445,
      "##ägge": 7446,
      "arv": 7447,
      "förstärk": 7448,
      "##rans": 7449,
      "##magasin": 7450,
      "##ripa": 7451,
      "##domar": 7452,
      "Lö": 7453,
      "##handeln": 7454,
      "Regeringen": 7455,
      "Anne": 7456,
      "##ägarna": 7457,
      "##atorer": 7458,
      "##tagande": 7459,
      "eleverna": 7460,
      "Cap": 7461,
      "spräng": 7462,
      "stockholm": 7463,
      "tonår": 7464,
      "Holland": 7465,
      "sträng": 7466,
      "nordöstra": 7467,
      "##99": 7468,
      "##försäkring": 7469,
      "##fir": 7470,
      "##sor": 7471,
      "##ovak": 7472,
      "regerings": 7473,
      "##estern": 7474,
      "Hö": 7475,
      "##ftar": 7476,
      "upprep": 7477,
      "##rich": 7478,
      "Dina": 7479,
      "Atl": 7480,
      "##emin": 7481,
      "pojkar": 7482,
      "skaff": 7483,
      "synpunkter": 7484,
      "överläg": 7485,
      "##isse": 7486,
      "unge": 7487,
      "##33": 7488,
      "Tysk": 7489,
      "Kväll": 7490,
      "skiljer": 7491,
      "Hos": 7492,
      "väntat": 7493,
      "skak": 7494,
      "Mö": 7495,
      "##arbeten": 7496,
      "import": 7497,
      "##ment": 7498,
      "##hållning": 7499,
      "##pper": 7500,
      "##lo": 7501,
      "påverkar": 7502,
      "ration": 7503,
      "överd": 7504,
      "##fs": 7505,
      "##ome": 7506,
      "Jör": 7507,
      "fäll": 7508,
      "Saab": 7509,
      "bete": 7510,
      "inriktning": 7511,
      "ihåg": 7512,
      "noga": 7513,
      "Belg": 7514,
      "släppa": 7515,
      "målvakt": 7516,
      "kunn": 7517,
      "##byggd": 7518,
      "stäppklimat": 7519,
      "mand": 7520,
      "lågt": 7521,
      "stannar": 7522,
      "##havare": 7523,
      "##änsl": 7524,
      "rektor": 7525,
      "sant": 7526,
      "Ull": 7527,
      "Också": 7528,
      "gröna": 7529,
      "jazz": 7530,
      "Ove": 7531,
      "Tjeck": 7532,
      "Histor": 7533,
      "väntade": 7534,
      "stämmer": 7535,
      "supp": 7536,
      "##ior": 7537,
      "##akning": 7538,
      "##ysande": 7539,
      "bedriv": 7540,
      "##000": 7541,
      "Expressens": 7542,
      "SE": 7543,
      "överst": 7544,
      "Afton": 7545,
      "befolkningen": 7546,
      "##elin": 7547,
      "Adolf": 7548,
      "Jim": 7549,
      "Amerika": 7550,
      "sköter": 7551,
      "öppnade": 7552,
      "köpt": 7553,
      "bott": 7554,
      "kapten": 7555,
      "##vard": 7556,
      "stolt": 7557,
      "##äckande": 7558,
      "da": 7559,
      "##smäss": 7560,
      "tekniskt": 7561,
      "slutsats": 7562,
      "Bad": 7563,
      "##sförmed": 7564,
      "rok": 7565,
      "Hälsing": 7566,
      "Medan": 7567,
      "##folk": 7568,
      "##rock": 7569,
      "Kort": 7570,
      "lett": 7571,
      "##oppa": 7572,
      "Sovjetun": 7573,
      "Ass": 7574,
      "##vagn": 7575,
      "Bos": 7576,
      "##smarker": 7577,
      "##ios": 7578,
      "##aken": 7579,
      "##oteket": 7580,
      "motståndare": 7581,
      "fix": 7582,
      "##yo": 7583,
      "förklara": 7584,
      "##entliga": 7585,
      "pekar": 7586,
      "heltid": 7587,
      "statistik": 7588,
      "kak": 7589,
      "Band": 7590,
      "##änsla": 7591,
      "byn": 7592,
      "gn": 7593,
      "Torsten": 7594,
      "##urar": 7595,
      "##eningen": 7596,
      "kämp": 7597,
      "ishockey": 7598,
      "Vatten": 7599,
      "##ela": 7600,
      "belopp": 7601,
      "Helsingborg": 7602,
      "rejält": 7603,
      "teoret": 7604,
      "1967": 7605,
      "meddelade": 7606,
      "160": 7607,
      "foto": 7608,
      "Bank": 7609,
      "##smiljö": 7610,
      "##egrad": 7611,
      "##sal": 7612,
      "##bank": 7613,
      "##rt": 7614,
      "##ited": 7615,
      "##fritt": 7616,
      "impon": 7617,
      "##järt": 7618,
      "Halmstad": 7619,
      "Pan": 7620,
      "##färg": 7621,
      "##givning": 7622,
      "fiction": 7623,
      "bestämmelser": 7624,
      "Rid": 7625,
      "Irak": 7626,
      "Knut": 7627,
      "##valet": 7628,
      "1977": 7629,
      "Air": 7630,
      "Simon": 7631,
      "Österrike": 7632,
      "utök": 7633,
      "utsläpp": 7634,
      "Nyh": 7635,
      "##ögen": 7636,
      "Mars": 7637,
      "Morgon": 7638,
      "Madrid": 7639,
      "oföränd": 7640,
      "##sbyg": 7641,
      "##entlig": 7642,
      "rekry": 7643,
      "TILL": 7644,
      "ringer": 7645,
      "syns": 7646,
      "ställs": 7647,
      "värt": 7648,
      "alltmer": 7649,
      "##viv": 7650,
      "emellan": 7651,
      "Rum": 7652,
      "enklare": 7653,
      "##bered": 7654,
      "klarade": 7655,
      "##allad": 7656,
      "Jones": 7657,
      "##bidrag": 7658,
      "Jakarta": 7659,
      "sköts": 7660,
      "pojke": 7661,
      "förny": 7662,
      "skilda": 7663,
      "Est": 7664,
      "##tex": 7665,
      "grabb": 7666,
      "Wien": 7667,
      "debut": 7668,
      "narkot": 7669,
      "fruk": 7670,
      "vuxen": 7671,
      "konk": 7672,
      "##irk": 7673,
      "Viss": 7674,
      "aning": 7675,
      "Lud": 7676,
      "samlade": 7677,
      "intresserade": 7678,
      "##pension": 7679,
      "Senast": 7680,
      "decenn": 7681,
      "##mån": 7682,
      "företrädare": 7683,
      "##ze": 7684,
      "##åv": 7685,
      "##orma": 7686,
      "##ily": 7687,
      "minskar": 7688,
      "Lindberg": 7689,
      "##rah": 7690,
      "oell": 7691,
      "##stopp": 7692,
      "misstag": 7693,
      "1969": 7694,
      "arbetsmarknad": 7695,
      "syskon": 7696,
      "##olym": 7697,
      "medier": 7698,
      "##orator": 7699,
      "##44": 7700,
      "##sminister": 7701,
      "paket": 7702,
      "sånger": 7703,
      "##ident": 7704,
      "tyder": 7705,
      "1978": 7706,
      "My": 7707,
      "minne": 7708,
      "spark": 7709,
      "##inspekt": 7710,
      "inklusive": 7711,
      "##edition": 7712,
      "konserv": 7713,
      "ladd": 7714,
      "stött": 7715,
      "FF": 7716,
      "examen": 7717,
      "##sproblem": 7718,
      "reduc": 7719,
      "Vilket": 7720,
      "hämta": 7721,
      "mötte": 7722,
      "svenskarna": 7723,
      "##landsklimat": 7724,
      "Europas": 7725,
      "drabbas": 7726,
      "kontant": 7727,
      "ändamål": 7728,
      "misstänkt": 7729,
      "rysk": 7730,
      "utnyttja": 7731,
      "upphör": 7732,
      "öde": 7733,
      "As": 7734,
      "##stud": 7735,
      "##draget": 7736,
      "##ången": 7737,
      "team": 7738,
      "sorts": 7739,
      "årsåldern": 7740,
      "sväng": 7741,
      "center": 7742,
      "Äventyr": 7743,
      "##nämnda": 7744,
      "##sätter": 7745,
      "felakt": 7746,
      "##ask": 7747,
      "##IA": 7748,
      "egenskaper": 7749,
      "Flor": 7750,
      "Nick": 7751,
      "renover": 7752,
      "larm": 7753,
      "definitivt": 7754,
      "flickan": 7755,
      "Ken": 7756,
      "Kör": 7757,
      "IT": 7758,
      "##orld": 7759,
      "kop": 7760,
      "##ugan": 7761,
      "expert": 7762,
      "givit": 7763,
      "##jänster": 7764,
      "Margareta": 7765,
      "Brittiskt": 7766,
      "tum": 7767,
      "röra": 7768,
      "##gifterna": 7769,
      "flygplan": 7770,
      "##atch": 7771,
      "##yren": 7772,
      "##ynt": 7773,
      "##ORG": 7774,
      "gräsmarker": 7775,
      "##eback": 7776,
      "velat": 7777,
      "Johnson": 7778,
      "##ätte": 7779,
      "eventuella": 7780,
      "Mus": 7781,
      "##eed": 7782,
      "kontakta": 7783,
      "representant": 7784,
      "##raff": 7785,
      "##ättningen": 7786,
      "##intyg": 7787,
      "##ducent": 7788,
      "demonstr": 7789,
      "1965": 7790,
      "därifrån": 7791,
      "Na": 7792,
      "Öv": 7793,
      "sökte": 7794,
      "##66": 7795,
      "belägen": 7796,
      "industrin": 7797,
      "Arean": 7798,
      "liter": 7799,
      "skym": 7800,
      "tele": 7801,
      "beställ": 7802,
      "##likten": 7803,
      "cirk": 7804,
      "sydvästra": 7805,
      "pressen": 7806,
      "##vers": 7807,
      "katt": 7808,
      "##entern": 7809,
      "mun": 7810,
      "diskussion": 7811,
      "Totalt": 7812,
      "##tio": 7813,
      "Cam": 7814,
      "##smannen": 7815,
      "##jord": 7816,
      "Samtliga": 7817,
      "Staff": 7818,
      "minus": 7819,
      "il": 7820,
      "titeln": 7821,
      "läck": 7822,
      "gyn": 7823,
      "##döm": 7824,
      "##landa": 7825,
      "Hör": 7826,
      "dim": 7827,
      "flyttar": 7828,
      "##prov": 7829,
      "##oli": 7830,
      "##egräns": 7831,
      "fla": 7832,
      "anspråk": 7833,
      "##sö": 7834,
      "Pi": 7835,
      "klassen": 7836,
      "Dar": 7837,
      "##onferens": 7838,
      "##fft": 7839,
      "Win": 7840,
      "##ensioner": 7841,
      "någonstans": 7842,
      "bröt": 7843,
      "billigare": 7844,
      "##jar": 7845,
      "angående": 7846,
      "Kommer": 7847,
      "lands": 7848,
      "##radio": 7849,
      "religi": 7850,
      "skatter": 7851,
      "##pack": 7852,
      "##do": 7853,
      "##skans": 7854,
      "##etnam": 7855,
      "symp": 7856,
      "##sreg": 7857,
      "nye": 7858,
      "vd": 7859,
      "instrument": 7860,
      "ambassad": 7861,
      "aren": 7862,
      "ombud": 7863,
      "##iotal": 7864,
      "hälso": 7865,
      "fantastiskt": 7866,
      "trag": 7867,
      "##sfri": 7868,
      "##sko": 7869,
      "##ory": 7870,
      "utöver": 7871,
      "gren": 7872,
      "##anspråk": 7873,
      "Kent": 7874,
      "omsorg": 7875,
      "##hi": 7876,
      "Tri": 7877,
      "Amerikanskt": 7878,
      "1940": 7879,
      "##uer": 7880,
      "Människ": 7881,
      "##pool": 7882,
      "praktiska": 7883,
      "##sla": 7884,
      "##kam": 7885,
      "##miären": 7886,
      "Lilj": 7887,
      "##jämt": 7888,
      "urs": 7889,
      "Ljus": 7890,
      "##atör": 7891,
      "spis": 7892,
      "##umret": 7893,
      "elev": 7894,
      "behandlas": 7895,
      "175": 7896,
      "##bal": 7897,
      "Mur": 7898,
      "Las": 7899,
      "spekul": 7900,
      "fien": 7901,
      "stress": 7902,
      "tempo": 7903,
      "##ÖN": 7904,
      "##ydde": 7905,
      "##länd": 7906,
      "##varter": 7907,
      "##lägga": 7908,
      "Pek": 7909,
      "entus": 7910,
      "motiv": 7911,
      "damer": 7912,
      "rollen": 7913,
      "##GIF": 7914,
      "ekonomin": 7915,
      "stannade": 7916,
      "ställt": 7917,
      "bordet": 7918,
      "##jande": 7919,
      "##fast": 7920,
      "Plan": 7921,
      "##änningar": 7922,
      "##följd": 7923,
      "Ott": 7924,
      "varu": 7925,
      "##LIG": 7926,
      "Janne": 7927,
      "##chester": 7928,
      "##lå": 7929,
      "kant": 7930,
      "ärlig": 7931,
      "Kur": 7932,
      "##ärka": 7933,
      "sökt": 7934,
      "Cal": 7935,
      "##lt": 7936,
      "mask": 7937,
      "##ere": 7938,
      "##arett": 7939,
      "Stort": 7940,
      "##jobb": 7941,
      "allting": 7942,
      "##ente": 7943,
      "Gener": 7944,
      "parad": 7945,
      "byggt": 7946,
      "oberoende": 7947,
      "kontors": 7948,
      "Henry": 7949,
      "balkong": 7950,
      "paus": 7951,
      "##arskap": 7952,
      "sla": 7953,
      "Kong": 7954,
      "inställning": 7955,
      "kraftig": 7956,
      "Can": 7957,
      "##djur": 7958,
      "Rör": 7959,
      "Särskilt": 7960,
      "Svealand": 7961,
      "##empel": 7962,
      "ställe": 7963,
      "häft": 7964,
      "våras": 7965,
      "inrätt": 7966,
      "##hammar": 7967,
      "Stre": 7968,
      "##äten": 7969,
      "##luft": 7970,
      "Kor": 7971,
      "##imerad": 7972,
      "referens": 7973,
      "Gab": 7974,
      "##sbolag": 7975,
      "##LY": 7976,
      "projektet": 7977,
      "##formen": 7978,
      "handlade": 7979,
      "August": 7980,
      "##han": 7981,
      "##inar": 7982,
      "##89": 7983,
      "Big": 7984,
      "förklaring": 7985,
      "distans": 7986,
      "170": 7987,
      "radik": 7988,
      "##sbes": 7989,
      "##sliga": 7990,
      "avdelningen": 7991,
      "##holmen": 7992,
      "ledig": 7993,
      "Jess": 7994,
      "##öck": 7995,
      "funnit": 7996,
      "Josef": 7997,
      "##kes": 7998,
      "pjäs": 7999,
      "kortare": 8000,
      "framme": 8001,
      "placering": 8002,
      "Västtyskland": 8003,
      "lösningar": 8004,
      "115": 8005,
      "##ofon": 8006,
      "gitar": 8007,
      "Kro": 8008,
      "##hålla": 8009,
      "Bag": 8010,
      "##bile": 8011,
      "##grader": 8012,
      "Angeles": 8013,
      "##lutet": 8014,
      "veter": 8015,
      "##EC": 8016,
      "vände": 8017,
      "kommittén": 8018,
      "arbetare": 8019,
      "satsar": 8020,
      "äga": 8021,
      "bif": 8022,
      "##itté": 8023,
      "detaljer": 8024,
      "långsikt": 8025,
      "minskat": 8026,
      "##urit": 8027,
      "hockey": 8028,
      "sörjande": 8029,
      "Champ": 8030,
      "slutligen": 8031,
      "glob": 8032,
      "##göt": 8033,
      "album": 8034,
      "Ske": 8035,
      "##byg": 8036,
      "Lyck": 8037,
      "tennis": 8038,
      "##olagen": 8039,
      "träna": 8040,
      "branschen": 8041,
      "1966": 8042,
      "komplic": 8043,
      "förk": 8044,
      "Bostad": 8045,
      "##usson": 8046,
      "SR": 8047,
      "avgöra": 8048,
      "Gro": 8049,
      "matcherna": 8050,
      "##eda": 8051,
      "fullständigt": 8052,
      "##BERG": 8053,
      "##imin": 8054,
      "finnes": 8055,
      "##ovic": 8056,
      "engagemang": 8057,
      "1900": 8058,
      "läste": 8059,
      "Tar": 8060,
      "##alten": 8061,
      "##spolitik": 8062,
      "förstod": 8063,
      "mönster": 8064,
      "##eborg": 8065,
      "Fransk": 8066,
      "##77": 8067,
      "##feldt": 8068,
      "frig": 8069,
      "Ku": 8070,
      "##organisationen": 8071,
      "Mexico": 8072,
      "##svik": 8073,
      "##meter": 8074,
      "appar": 8075,
      "Åter": 8076,
      "##sbe": 8077,
      "##ssp": 8078,
      "Romant": 8079,
      "##lige": 8080,
      "körning": 8081,
      "Läns": 8082,
      "korrespond": 8083,
      "obeh": 8084,
      "1964": 8085,
      "##nats": 8086,
      "jäv": 8087,
      "gifta": 8088,
      "Mest": 8089,
      "##skare": 8090,
      "längst": 8091,
      "##odi": 8092,
      "Carol": 8093,
      "Hansson": 8094,
      "typer": 8095,
      "Vilka": 8096,
      "temperatur": 8097,
      "konser": 8098,
      "bråk": 8099,
      "Gäst": 8100,
      "överlev": 8101,
      "##tjänst": 8102,
      "nom": 8103,
      "tvång": 8104,
      "Ref": 8105,
      "##aldrama": 8106,
      "protester": 8107,
      "Nobel": 8108,
      "behovet": 8109,
      "##sw": 8110,
      "##system": 8111,
      "mångå": 8112,
      "##helm": 8113,
      "hänvis": 8114,
      "modeller": 8115,
      "slit": 8116,
      "##ison": 8117,
      "döden": 8118,
      "##eby": 8119,
      "användning": 8120,
      "välk": 8121,
      "lans": 8122,
      "ökenklimat": 8123,
      "##engar": 8124,
      "mängder": 8125,
      "Slott": 8126,
      "##mord": 8127,
      "chanser": 8128,
      "Skellefteå": 8129,
      "uppm": 8130,
      "JO": 8131,
      "##äge": 8132,
      "läro": 8133,
      "inbjud": 8134,
      "til": 8135,
      "ledamot": 8136,
      "handikapp": 8137,
      "kinesiska": 8138,
      "rån": 8139,
      "##domen": 8140,
      "lagar": 8141,
      "betalt": 8142,
      "##vor": 8143,
      "förbundskapten": 8144,
      "Kurt": 8145,
      "##efull": 8146,
      "flertal": 8147,
      "skärgård": 8148,
      "Alger": 8149,
      "organisationen": 8150,
      "##elset": 8151,
      "bjöd": 8152,
      "betraktas": 8153,
      "Trans": 8154,
      "officiella": 8155,
      "förvar": 8156,
      "tydlig": 8157,
      "##ians": 8158,
      "1962": 8159,
      "möten": 8160,
      "präst": 8161,
      "##ätet": 8162,
      "orkester": 8163,
      "lövskog": 8164,
      "verkstad": 8165,
      "presidenten": 8166,
      "vild": 8167,
      "fruktans": 8168,
      "spanska": 8169,
      "##iella": 8170,
      "nytta": 8171,
      "kalk": 8172,
      "anslag": 8173,
      "Sofia": 8174,
      "mobil": 8175,
      "kanal": 8176,
      "Bob": 8177,
      "växa": 8178,
      "Science": 8179,
      "Boll": 8180,
      "uppleva": 8181,
      "tillfreds": 8182,
      "der": 8183,
      "##pat": 8184,
      "döma": 8185,
      "sö": 8186,
      "säk": 8187,
      "köket": 8188,
      "tvär": 8189,
      "Bi": 8190,
      "skytt": 8191,
      "Ess": 8192,
      "##pot": 8193,
      "servic": 8194,
      "®": 8195,
      "Resultatet": 8196,
      "1945": 8197,
      "##sbanken": 8198,
      "Afrika": 8199,
      "sjuksköter": 8200,
      "##ALL": 8201,
      "styrk": 8202,
      "texten": 8203,
      "försvars": 8204,
      "kniv": 8205,
      "Hal": 8206,
      "beslutat": 8207,
      "Real": 8208,
      "##ibet": 8209,
      "förfog": 8210,
      "She": 8211,
      "Trump": 8212,
      "tillsyn": 8213,
      "##elj": 8214,
      "##itioner": 8215,
      "flott": 8216,
      "spara": 8217,
      "profil": 8218,
      "##blå": 8219,
      "##ederbör": 8220,
      "##ose": 8221,
      "##stan": 8222,
      "Charles": 8223,
      "föräl": 8224,
      "beslöt": 8225,
      "1000": 8226,
      "hygg": 8227,
      "effektivt": 8228,
      "##ningsserie": 8229,
      "Lindgren": 8230,
      "trafiken": 8231,
      "bära": 8232,
      "fordon": 8233,
      "##bec": 8234,
      "priserna": 8235,
      "Göt": 8236,
      "oh": 8237,
      "Leon": 8238,
      "Grekland": 8239,
      "nyår": 8240,
      "##agnen": 8241,
      "ändringar": 8242,
      "alltjämt": 8243,
      "kansli": 8244,
      "Juli": 8245,
      "350": 8246,
      "##ota": 8247,
      "reportage": 8248,
      "##kopp": 8249,
      "##dat": 8250,
      "värn": 8251,
      "ytan": 8252,
      "##SV": 8253,
      "tämligen": 8254,
      "§": 8255,
      "##fisk": 8256,
      "##idar": 8257,
      "##branschen": 8258,
      "soldater": 8259,
      "gränser": 8260,
      "##amman": 8261,
      "aktuell": 8262,
      "hörn": 8263,
      "##föra": 8264,
      "problemen": 8265,
      "Kam": 8266,
      "händelse": 8267,
      "kill": 8268,
      "Falun": 8269,
      "gymnasie": 8270,
      "identif": 8271,
      "##sförmåga": 8272,
      "pressk": 8273,
      "##enomen": 8274,
      "poliser": 8275,
      "talat": 8276,
      "integr": 8277,
      "United": 8278,
      "förlora": 8279,
      "##erv": 8280,
      "##sekonom": 8281,
      "Lär": 8282,
      "argument": 8283,
      "##SUPP": 8284,
      "väsent": 8285,
      "##din": 8286,
      "inform": 8287,
      "tår": 8288,
      "träffas": 8289,
      "##pade": 8290,
      "profession": 8291,
      "dirig": 8292,
      "Smith": 8293,
      "mäkt": 8294,
      "paret": 8295,
      "him": 8296,
      "avsikt": 8297,
      "samord": 8298,
      "##vetenskap": 8299,
      "nyckel": 8300,
      "NY": 8301,
      "KVAL": 8302,
      "ky": 8303,
      "##splatsen": 8304,
      "##ffekt": 8305,
      "##GIFTER": 8306,
      "räd": 8307,
      "Börje": 8308,
      "Roland": 8309,
      "tfn": 8310,
      "##NINGAR": 8311,
      "##uder": 8312,
      "överklag": 8313,
      "SD": 8314,
      "hästen": 8315,
      "##lov": 8316,
      "kostnaderna": 8317,
      "Scott": 8318,
      "tränaren": 8319,
      "levde": 8320,
      "tjänar": 8321,
      "Argent": 8322,
      "höja": 8323,
      "##föränd": 8324,
      "kört": 8325,
      "centralt": 8326,
      "stadsdel": 8327,
      "yr": 8328,
      "Marcus": 8329,
      "Lad": 8330,
      "Ej": 8331,
      "överraskande": 8332,
      "Tob": 8333,
      "tittade": 8334,
      "##ammaren": 8335,
      "fylla": 8336,
      "185": 8337,
      "Kalle": 8338,
      "##ebra": 8339,
      "dras": 8340,
      "##såt": 8341,
      "Mina": 8342,
      "Dis": 8343,
      "mår": 8344,
      "##supp": 8345,
      "##tida": 8346,
      "uppgick": 8347,
      "fre": 8348,
      "XXX": 8349,
      "##sväg": 8350,
      "##verkets": 8351,
      "Cor": 8352,
      "##banan": 8353,
      "deltar": 8354,
      "tjäna": 8355,
      "##lagda": 8356,
      "##DER": 8357,
      "##onger": 8358,
      "##öden": 8359,
      "##ugoslav": 8360,
      "Gi": 8361,
      "Teh": 8362,
      "bib": 8363,
      "##arter": 8364,
      "mästare": 8365,
      "båten": 8366,
      "##rey": 8367,
      "##ikern": 8368,
      "##rädet": 8369,
      "Albert": 8370,
      "£": 8371,
      "##ELL": 8372,
      "##budet": 8373,
      "Halv": 8374,
      "ARBETSUPP": 8375,
      "hållit": 8376,
      "hellre": 8377,
      "jämförelse": 8378,
      "##kamp": 8379,
      "missbruk": 8380,
      "##OMM": 8381,
      "reste": 8382,
      "##oo": 8383,
      "##loppet": 8384,
      "förhind": 8385,
      "studera": 8386,
      "##UL": 8387,
      "Tw": 8388,
      "##UT": 8389,
      "herrar": 8390,
      "mordet": 8391,
      "position": 8392,
      "trygghet": 8393,
      "##kass": 8394,
      "fing": 8395,
      "mik": 8396,
      "##omål": 8397,
      "språket": 8398,
      "##sstil": 8399,
      "##fa": 8400,
      "##ange": 8401,
      "Filmen": 8402,
      "##itionen": 8403,
      "pedagog": 8404,
      "tjejer": 8405,
      "legat": 8406,
      "tycka": 8407,
      "Nä": 8408,
      "##62": 8409,
      "##sättningar": 8410,
      "allsvenskan": 8411,
      "Lager": 8412,
      "##temot": 8413,
      "##ders": 8414,
      "Borås": 8415,
      "grav": 8416,
      "##vida": 8417,
      "uppstår": 8418,
      "Ia": 8419,
      "Off": 8420,
      "##ANS": 8421,
      "##fé": 8422,
      "ansträng": 8423,
      "reglerna": 8424,
      "Flick": 8425,
      "##oka": 8426,
      "Staffan": 8427,
      "färre": 8428,
      "följt": 8429,
      "Stör": 8430,
      "##berga": 8431,
      "dispon": 8432,
      "1948": 8433,
      "102": 8434,
      "##verksamheten": 8435,
      "savannskog": 8436,
      "Bab": 8437,
      "säkerhets": 8438,
      "aktiva": 8439,
      "III": 8440,
      "##osten": 8441,
      "nådde": 8442,
      "##tra": 8443,
      "dal": 8444,
      "##eteck": 8445,
      "önskemål": 8446,
      "stam": 8447,
      "händelser": 8448,
      "##arp": 8449,
      "räknat": 8450,
      "priorit": 8451,
      "##unds": 8452,
      "allvarliga": 8453,
      "konsul": 8454,
      "konstigt": 8455,
      "grundläggande": 8456,
      "jur": 8457,
      "##73": 8458,
      "HK": 8459,
      "Elisabeth": 8460,
      "##sky": 8461,
      "tjänste": 8462,
      "Ryd": 8463,
      "stilla": 8464,
      "herre": 8465,
      "ARBETSUPPGIFTER": 8466,
      "vass": 8467,
      "Norrlands": 8468,
      "##jt": 8469,
      "tillväxt": 8470,
      "Ven": 8471,
      "byrå": 8472,
      "rolig": 8473,
      "sändes": 8474,
      "åtskilliga": 8475,
      "Guld": 8476,
      "ständ": 8477,
      "Goda": 8478,
      "Gri": 8479,
      "tillkommer": 8480,
      "därpå": 8481,
      "##ägna": 8482,
      "kosta": 8483,
      "tillåt": 8484,
      "Hitt": 8485,
      "intellekt": 8486,
      "Ännu": 8487,
      "##löp": 8488,
      "yrke": 8489,
      "föredrag": 8490,
      "trea": 8491,
      "##uth": 8492,
      "1963": 8493,
      "frågorna": 8494,
      "maten": 8495,
      "hyre": 8496,
      "dramakomedi": 8497,
      "##rol": 8498,
      "porträtt": 8499,
      "bedömning": 8500,
      "Kall": 8501,
      "stab": 8502,
      "underlag": 8503,
      "Univers": 8504,
      "Sollentuna": 8505,
      "ansiktet": 8506,
      "objekt": 8507,
      "##stolen": 8508,
      "South": 8509,
      "ordna": 8510,
      "ingå": 8511,
      "gammalt": 8512,
      "väs": 8513,
      "Försvar": 8514,
      "Zl": 8515,
      "kombination": 8516,
      "##boken": 8517,
      "##ipend": 8518,
      "##fram": 8519,
      "sprang": 8520,
      "historiska": 8521,
      "påstå": 8522,
      "SAS": 8523,
      "ansöknings": 8524,
      "Glob": 8525,
      "utseende": 8526,
      "förråd": 8527,
      "##chans": 8528,
      "##ugga": 8529,
      "föreningen": 8530,
      "termin": 8531,
      "Qué": 8532,
      "intro": 8533,
      "utvändigt": 8534,
      "STOCK": 8535,
      "Tyvärr": 8536,
      "hantera": 8537,
      "fakta": 8538,
      "Sydafrika": 8539,
      "piano": 8540,
      "##mässigt": 8541,
      "Ön": 8542,
      "Rod": 8543,
      "förefaller": 8544,
      "bidra": 8545,
      "symbol": 8546,
      "BB": 8547,
      "Familjen": 8548,
      "##räkt": 8549,
      "##osaik": 8550,
      "Mos": 8551,
      "iak": 8552,
      "##listan": 8553,
      "skal": 8554,
      "tävlingar": 8555,
      "##endens": 8556,
      "Sista": 8557,
      "kuver": 8558,
      "rec": 8559,
      "miljön": 8560,
      "Ernst": 8561,
      "Emma": 8562,
      "heder": 8563,
      "presenteras": 8564,
      "Problem": 8565,
      "##anny": 8566,
      "kategor": 8567,
      "##lekt": 8568,
      "kvinnlig": 8569,
      "##rubb": 8570,
      "bre": 8571,
      "Québec": 8572,
      "##ÄN": 8573,
      "Samuel": 8574,
      "åberopa": 8575,
      "dömdes": 8576,
      "uppfölj": 8577,
      "##yper": 8578,
      "Bengtsson": 8579,
      "##konst": 8580,
      "##bu": 8581,
      "fattig": 8582,
      "fantastisk": 8583,
      "ho": 8584,
      "löneanspråk": 8585,
      "##fi": 8586,
      "Arm": 8587,
      "Mi": 8588,
      "Back": 8589,
      "##ocken": 8590,
      "förbättra": 8591,
      "##sform": 8592,
      "sinn": 8593,
      "##gärder": 8594,
      "Sådan": 8595,
      "sjöng": 8596,
      "arbeten": 8597,
      "Lindström": 8598,
      "##efilm": 8599,
      "##neringen": 8600,
      "Hum": 8601,
      "produktionen": 8602,
      "Ras": 8603,
      "##avor": 8604,
      "bägge": 8605,
      "dyker": 8606,
      "flex": 8607,
      "##sätta": 8608,
      "Teater": 8609,
      "##staka": 8610,
      "##kas": 8611,
      "ansikte": 8612,
      "##ti": 8613,
      "Strind": 8614,
      "agg": 8615,
      "Ell": 8616,
      "##ATIONER": 8617,
      "tufft": 8618,
      "Chris": 8619,
      "Turkiet": 8620,
      "##udi": 8621,
      "Mell": 8622,
      "Odds": 8623,
      "golvet": 8624,
      "##anke": 8625,
      "present": 8626,
      "ku": 8627,
      "##middagen": 8628,
      "##umman": 8629,
      "människorna": 8630,
      "Dramakomedi": 8631,
      "BO": 8632,
      "turk": 8633,
      "uppgiften": 8634,
      "Sjuk": 8635,
      "Dock": 8636,
      "höstas": 8637,
      "Teheran": 8638,
      "Intress": 8639,
      "analyser": 8640,
      "Coll": 8641,
      "påpekar": 8642,
      "##esten": 8643,
      "svenske": 8644,
      "##teras": 8645,
      "Pär": 8646,
      "aktivt": 8647,
      "arbetstid": 8648,
      "orden": 8649,
      "##skra": 8650,
      "affären": 8651,
      "storm": 8652,
      "taket": 8653,
      "##ågor": 8654,
      "Bryn": 8655,
      "berömda": 8656,
      "händerna": 8657,
      "blommor": 8658,
      "##låt": 8659,
      "kompis": 8660,
      "Annika": 8661,
      "möjligheterna": 8662,
      "##holms": 8663,
      "est": 8664,
      "kapacitet": 8665,
      "##sommar": 8666,
      "##ÄLL": 8667,
      "löneklass": 8668,
      "tunnelb": 8669,
      "How": 8670,
      "Chile": 8671,
      "vänd": 8672,
      "Skandinav": 8673,
      "traditionella": 8674,
      "hjärtat": 8675,
      "##ghan": 8676,
      "Fac": 8677,
      "föreligger": 8678,
      "musk": 8679,
      "neut": 8680,
      "manliga": 8681,
      "##estin": 8682,
      "skyldig": 8683,
      "##STER": 8684,
      "rader": 8685,
      "Papp": 8686,
      "telef": 8687,
      "##skamrat": 8688,
      "Troll": 8689,
      "##IFIK": 8690,
      "exemplar": 8691,
      "##änkt": 8692,
      "Zlatan": 8693,
      "journalister": 8694,
      "Inlandsklimat": 8695,
      "utgå": 8696,
      "##ower": 8697,
      "skydda": 8698,
      "##bör": 8699,
      "##ävlingen": 8700,
      "UT": 8701,
      "vardera": 8702,
      "##bundet": 8703,
      "Manchester": 8704,
      "socker": 8705,
      "##teatern": 8706,
      "fantastiska": 8707,
      "trevliga": 8708,
      "lantbruk": 8709,
      "regnskog": 8710,
      "##pre": 8711,
      "tränar": 8712,
      "trav": 8713,
      "bearbet": 8714,
      "ansvarig": 8715,
      "Yng": 8716,
      "passa": 8717,
      "smitt": 8718,
      "##ammant": 8719,
      "##ÅR": 8720,
      "Må": 8721,
      "##ikat": 8722,
      "##inte": 8723,
      "omväx": 8724,
      "oeh": 8725,
      "Gunilla": 8726,
      "vädret": 8727,
      "Wood": 8728,
      "Råd": 8729,
      "speg": 8730,
      "Pop": 8731,
      "STOCKHOLM": 8732,
      "leverant": 8733,
      "sty": 8734,
      "Linda": 8735,
      "##ämma": 8736,
      "låtar": 8737,
      "##styrelsens": 8738,
      "hom": 8739,
      "AV": 8740,
      "israel": 8741,
      "##träde": 8742,
      "döds": 8743,
      "grip": 8744,
      "##agan": 8745,
      "KVALIFIK": 8746,
      "Statens": 8747,
      "Röda": 8748,
      "##eli": 8749,
      "populära": 8750,
      "avtalet": 8751,
      "rött": 8752,
      "##tåg": 8753,
      "besvik": 8754,
      "lid": 8755,
      "tvivel": 8756,
      "Häll": 8757,
      "##givande": 8758,
      "behär": 8759,
      "ler": 8760,
      "generation": 8761,
      "##terat": 8762,
      "##arten": 8763,
      "##smorgonen": 8764,
      "Läs": 8765,
      "Marianne": 8766,
      "##bon": 8767,
      "##ämnas": 8768,
      "föregående": 8769,
      "##ón": 8770,
      "dyra": 8771,
      "undervisning": 8772,
      "tav": 8773,
      "##edöm": 8774,
      "världsm": 8775,
      "anhöriga": 8776,
      "speciell": 8777,
      "1700": 8778,
      "propag": 8779,
      "slipper": 8780,
      "Rek": 8781,
      "invig": 8782,
      "tungt": 8783,
      "bidrar": 8784,
      "garage": 8785,
      "slippa": 8786,
      "Helena": 8787,
      "##obby": 8788,
      "sånt": 8789,
      "hemlighet": 8790,
      "amat": 8791,
      "grepp": 8792,
      "Bakom": 8793,
      "patient": 8794,
      "utrust": 8795,
      "##96": 8796,
      "innebar": 8797,
      "billigt": 8798,
      "deltagare": 8799,
      "intresset": 8800,
      "ori": 8801,
      "hant": 8802,
      "##ament": 8803,
      "beund": 8804,
      "ten": 8805,
      "countyt": 8806,
      "Christina": 8807,
      "företagets": 8808,
      "##steatern": 8809,
      "lagom": 8810,
      "Finans": 8811,
      "vardagsrum": 8812,
      "##offer": 8813,
      "101": 8814,
      "Afghan": 8815,
      "acceptera": 8816,
      "kriminal": 8817,
      "##äkna": 8818,
      "hej": 8819,
      "##övd": 8820,
      "dubbelt": 8821,
      "utdelning": 8822,
      "planerar": 8823,
      "##43": 8824,
      "##ätten": 8825,
      "familje": 8826,
      "##komsten": 8827,
      "gre": 8828,
      "minuten": 8829,
      "##fria": 8830,
      "levnad": 8831,
      "##yft": 8832,
      "sjuka": 8833,
      "Patrik": 8834,
      "gamle": 8835,
      "##esi": 8836,
      "##fota": 8837,
      "kommersi": 8838,
      "lördagar": 8839,
      "isen": 8840,
      "FR": 8841,
      "titel": 8842,
      "typen": 8843,
      "##sfor": 8844,
      "##rull": 8845,
      "##vind": 8846,
      "##rörelse": 8847,
      "Vita": 8848,
      "expans": 8849,
      "##sna": 8850,
      "Polit": 8851,
      "ämnet": 8852,
      "Klock": 8853,
      "Bosse": 8854,
      "nätet": 8855,
      "Franc": 8856,
      "##just": 8857,
      "1947": 8858,
      "farligt": 8859,
      "##besök": 8860,
      "meningen": 8861,
      "King": 8862,
      "Sovjetunionen": 8863,
      "##byrån": 8864,
      "Dans": 8865,
      "eftermiddag": 8866,
      "cigar": 8867,
      "##änts": 8868,
      "läkar": 8869,
      "##bana": 8870,
      "dar": 8871,
      "förutsätter": 8872,
      "förbjud": 8873,
      "AP": 8874,
      "##fråga": 8875,
      "##desdag": 8876,
      "##pi": 8877,
      "synnerligen": 8878,
      "##innande": 8879,
      "##ningst": 8880,
      "pågående": 8881,
      "##aks": 8882,
      "tion": 8883,
      "##ks": 8884,
      "humör": 8885,
      "Ivar": 8886,
      "fullständ": 8887,
      "cancer": 8888,
      "verka": 8889,
      "omgången": 8890,
      "Förvalt": 8891,
      "Jenn": 8892,
      "Samman": 8893,
      "linjen": 8894,
      "utföra": 8895,
      "##ogör": 8896,
      "Bod": 8897,
      "##sprocess": 8898,
      "Hr": 8899,
      "##vete": 8900,
      "##äser": 8901,
      "Tony": 8902,
      "anbud": 8903,
      "slåss": 8904,
      "värden": 8905,
      "##oman": 8906,
      "skivor": 8907,
      "studenter": 8908,
      "avsked": 8909,
      "transporter": 8910,
      "bevar": 8911,
      "##emb": 8912,
      "kommunens": 8913,
      "##risen": 8914,
      "demokrati": 8915,
      "Klass": 8916,
      "åtgärd": 8917,
      "norrut": 8918,
      "meddelar": 8919,
      "##dalen": 8920,
      "##stens": 8921,
      "##amerika": 8922,
      "DET": 8923,
      "##ito": 8924,
      "söderut": 8925,
      "eftermiddagen": 8926,
      "holl": 8927,
      "deleg": 8928,
      "sekt": 8929,
      "##ario": 8930,
      "befann": 8931,
      "##fordras": 8932,
      "valut": 8933,
      "##värme": 8934,
      "undersökningar": 8935,
      "Stureplan": 8936,
      "efterfrågan": 8937,
      "##ypt": 8938,
      "investering": 8939,
      "utgångspunkt": 8940,
      "##SP": 8941,
      "moral": 8942,
      "andre": 8943,
      "uppfyll": 8944,
      "möts": 8945,
      "Blir": 8946,
      "##värdig": 8947,
      "Victoria": 8948,
      "Vetenskap": 8949,
      "värm": 8950,
      "Ap": 8951,
      "upptäckte": 8952,
      "##direktör": 8953,
      "nämnda": 8954,
      "Inne": 8955,
      "list": 8956,
      "blyg": 8957,
      "Brun": 8958,
      "flyktingar": 8959,
      "not": 8960,
      "bestämde": 8961,
      "mosaik": 8962,
      "##heim": 8963,
      "golv": 8964,
      "förhandlingarna": 8965,
      "Barcel": 8966,
      "Gull": 8967,
      "uppgifterna": 8968,
      "instrukt": 8969,
      "mäst": 8970,
      "##text": 8971,
      "växande": 8972,
      "listan": 8973,
      "berättelse": 8974,
      "##cer": 8975,
      "livsstil": 8976,
      "besöker": 8977,
      "blivande": 8978,
      "varvid": 8979,
      "Tex": 8980,
      "förbud": 8981,
      "greps": 8982,
      "##varon": 8983,
      "frans": 8984,
      "##ming": 8985,
      "bekväm": 8986,
      "tåget": 8987,
      "Vietnam": 8988,
      "talas": 8989,
      "Leksand": 8990,
      "läsare": 8991,
      "viktigare": 8992,
      "##sång": 8993,
      "distriktet": 8994,
      "antik": 8995,
      "presenterar": 8996,
      "KVALIFIKATIONER": 8997,
      "cy": 8998,
      "##78": 8999,
      "underrätt": 9000,
      "##frik": 9001,
      "dan": 9002,
      "dagligen": 9003,
      "##umer": 9004,
      "Jönsson": 9005,
      "##LO": 9006,
      "Stats": 9007,
      "##cyk": 9008,
      "upptag": 9009,
      "uttalande": 9010,
      "Precis": 9011,
      "ställas": 9012,
      "##maskiner": 9013,
      "##bäck": 9014,
      "byte": 9015,
      "Folke": 9016,
      "##entyr": 9017,
      "Dist": 9018,
      "arbetslöshet": 9019,
      "lind": 9020,
      "Hult": 9021,
      "##fältet": 9022,
      "signal": 9023,
      "Västern": 9024,
      "##sfl": 9025,
      "duktig": 9026,
      "ug": 9027,
      "##veckling": 9028,
      "##skador": 9029,
      "##häst": 9030,
      "bjud": 9031,
      "krävde": 9032,
      "försäm": 9033,
      "Johnny": 9034,
      "lärar": 9035,
      "##HI": 9036,
      "Bilj": 9037,
      "laborator": 9038,
      "doktor": 9039,
      "Kol": 9040,
      "Käll": 9041,
      "utställningen": 9042,
      "##visningar": 9043,
      "Lib": 9044,
      "förbundet": 9045,
      "Helt": 9046,
      "Jörgen": 9047,
      "experter": 9048,
      "##mö": 9049,
      "entrepren": 9050,
      "##ttag": 9051,
      "##fund": 9052,
      "mom": 9053,
      "UR": 9054,
      "ägde": 9055,
      "114": 9056,
      "skadades": 9057,
      "kurser": 9058,
      "Jimm": 9059,
      "ställen": 9060,
      "##ual": 9061,
      "##sbank": 9062,
      "Pier": 9063,
      "tappade": 9064,
      "äldsta": 9065,
      "##rekord": 9066,
      "##oker": 9067,
      "##ommun": 9068,
      "Hk": 9069,
      "resul": 9070,
      "Arvid": 9071,
      "lägenheten": 9072,
      "gill": 9073,
      "skapat": 9074,
      "Kanadens": 9075,
      "##värdet": 9076,
      "Dels": 9077,
      "sensation": 9078,
      "presskonferens": 9079,
      "Fråga": 9080,
      "påbörj": 9081,
      "Brit": 9082,
      "Lee": 9083,
      "Des": 9084,
      "somras": 9085,
      "körkort": 9086,
      "##ämpa": 9087,
      "Göta": 9088,
      "skjuta": 9089,
      "avslutade": 9090,
      "##komedi": 9091,
      "##hämt": 9092,
      "Pres": 9093,
      "##skontoret": 9094,
      "hårdare": 9095,
      "##eph": 9096,
      "splitt": 9097,
      "Västerb": 9098,
      "utarbet": 9099,
      "otill": 9100,
      "##betyg": 9101,
      "Lotta": 9102,
      "Villa": 9103,
      "##kring": 9104,
      "##skij": 9105,
      "Bergström": 9106,
      "pröva": 9107,
      "utvid": 9108,
      "##assist": 9109,
      "skugg": 9110,
      "osv": 9111,
      "Norsk": 9112,
      "rymd": 9113,
      "##afé": 9114,
      "Årets": 9115,
      "##jälp": 9116,
      "cell": 9117,
      "##jerna": 9118,
      "##takten": 9119,
      "tjänstemän": 9120,
      "konstatera": 9121,
      "Karolin": 9122,
      "##öje": 9123,
      "##handlare": 9124,
      "nä": 9125,
      "övergång": 9126,
      "samarbeta": 9127,
      "utbildnings": 9128,
      "skift": 9129,
      "##kons": 9130,
      "regim": 9131,
      "lätta": 9132,
      "inledde": 9133,
      "slutt": 9134,
      "##71": 9135,
      "Jane": 9136,
      "personligt": 9137,
      "1930": 9138,
      "Bul": 9139,
      "medverka": 9140,
      "asyl": 9141,
      "försvara": 9142,
      "mons": 9143,
      "tusentals": 9144,
      "##äventyr": 9145,
      "Skansen": 9146,
      "##slöst": 9147,
      "rost": 9148,
      "Vä": 9149,
      "##stör": 9150,
      "märks": 9151,
      "Sundbyberg": 9152,
      "soff": 9153,
      "##osl": 9154,
      "centimeter": 9155,
      "##berätt": 9156,
      "##ankar": 9157,
      "##regl": 9158,
      "upplever": 9159,
      "söndags": 9160,
      "förlorar": 9161,
      "Kun": 9162,
      "Ragnar": 9163,
      "##liss": 9164,
      "##etto": 9165,
      "lysande": 9166,
      "långsamt": 9167,
      "Mass": 9168,
      "##fartyg": 9169,
      "1958": 9170,
      "landsbyg": 9171,
      "Nära": 9172,
      "##värden": 9173,
      "kulture": 9174,
      "jobbat": 9175,
      "##antz": 9176,
      "##reger": 9177,
      "enstaka": 9178,
      "##ivis": 9179,
      "skillnaden": 9180,
      "##AK": 9181,
      "##mäss": 9182,
      "##eds": 9183,
      "persiska": 9184,
      "##cr": 9185,
      "armén": 9186,
      "säljs": 9187,
      "Tjänst": 9188,
      "tätt": 9189,
      "112": 9190,
      "Östermalm": 9191,
      "ursäkt": 9192,
      "##skall": 9193,
      "svaret": 9194,
      "##stillstånd": 9195,
      "dotterb": 9196,
      "löner": 9197,
      "Företaget": 9198,
      "##byggda": 9199,
      "härlig": 9200,
      "skämt": 9201,
      "##ots": 9202,
      "hor": 9203,
      "##ifest": 9204,
      "nödvändig": 9205,
      "metall": 9206,
      "Afghanistan": 9207,
      "Konsert": 9208,
      "##uttit": 9209,
      "verktyg": 9210,
      "##förbruk": 9211,
      "##eland": 9212,
      "##sbr": 9213,
      "betygsav": 9214,
      "penning": 9215,
      "hundar": 9216,
      "skrattar": 9217,
      "##LI": 9218,
      "##saken": 9219,
      "##föret": 9220,
      "hemmaplan": 9221,
      "statsminister": 9222,
      "konsult": 9223,
      "kram": 9224,
      "##skolor": 9225,
      "löst": 9226,
      "Bas": 9227,
      "arbetskraft": 9228,
      "närhet": 9229,
      "Il": 9230,
      "##spark": 9231,
      "##onym": 9232,
      "bolagets": 9233,
      "##pröv": 9234,
      "Näst": 9235,
      "##ehör": 9236,
      "Louis": 9237,
      "drev": 9238,
      "##seln": 9239,
      "Allan": 9240,
      "beredskap": 9241,
      "Hu": 9242,
      "##kår": 9243,
      "Ib": 9244,
      "Sträng": 9245,
      "division": 9246,
      "1961": 9247,
      "butiker": 9248,
      "lönegrad": 9249,
      "giss": 9250,
[...]
